const unsigned char gesture_model [] = {  
  0x1c, 0x00, 0x00, 0x00, 0x54, 0x46, 0x4c, 0x33, 0x14, 0x00, 0x20, 0x00,
  0x1c, 0x00, 0x18, 0x00, 0x14, 0x00, 0x10, 0x00, 0x0c, 0x00, 0x00, 0x00,
  0x08, 0x00, 0x04, 0x00, 0x14, 0x00, 0x00, 0x00, 0x1c, 0x00, 0x00, 0x00,
  0x90, 0x00, 0x00, 0x00, 0xe8, 0x00, 0x00, 0x00, 0x2c, 0x34, 0x00, 0x00,
  0x3c, 0x34, 0x00, 0x00, 0xf8, 0x39, 0x00, 0x00, 0x03, 0x00, 0x00, 0x00,
  0x01, 0x00, 0x00, 0x00, 0x10, 0x00, 0x00, 0x00, 0x00, 0x00, 0x0a, 0x00,
  0x10, 0x00, 0x0c, 0x00, 0x08, 0x00, 0x04, 0x00, 0x0a, 0x00, 0x00, 0x00,
  0x0c, 0x00, 0x00, 0x00, 0x1c, 0x00, 0x00, 0x00, 0x38, 0x00, 0x00, 0x00,
  0x0f, 0x00, 0x00, 0x00, 0x73, 0x65, 0x72, 0x76, 0x69, 0x6e, 0x67, 0x5f,
  0x64, 0x65, 0x66, 0x61, 0x75, 0x6c, 0x74, 0x00, 0x01, 0x00, 0x00, 0x00,
  0x04, 0x00, 0x00, 0x00, 0x98, 0xff, 0xff, 0xff, 0x0a, 0x00, 0x00, 0x00,
  0x04, 0x00, 0x00, 0x00, 0x07, 0x00, 0x00, 0x00, 0x64, 0x65, 0x6e, 0x73,
  0x65, 0x5f, 0x32, 0x00, 0x01, 0x00, 0x00, 0x00, 0x04, 0x00, 0x00, 0x00,
  0xb6, 0xcb, 0xff, 0xff, 0x04, 0x00, 0x00, 0x00, 0x0b, 0x00, 0x00, 0x00,
  0x64, 0x65, 0x6e, 0x73, 0x65, 0x5f, 0x69, 0x6e, 0x70, 0x75, 0x74, 0x00,
  0x02, 0x00, 0x00, 0x00, 0x34, 0x00, 0x00, 0x00, 0x04, 0x00, 0x00, 0x00,
  0xdc, 0xff, 0xff, 0xff, 0x0d, 0x00, 0x00, 0x00, 0x04, 0x00, 0x00, 0x00,
  0x13, 0x00, 0x00, 0x00, 0x43, 0x4f, 0x4e, 0x56, 0x45, 0x52, 0x53, 0x49,
  0x4f, 0x4e, 0x5f, 0x4d, 0x45, 0x54, 0x41, 0x44, 0x41, 0x54, 0x41, 0x00,
  0x08, 0x00, 0x0c, 0x00, 0x08, 0x00, 0x04, 0x00, 0x08, 0x00, 0x00, 0x00,
  0x0c, 0x00, 0x00, 0x00, 0x04, 0x00, 0x00, 0x00, 0x13, 0x00, 0x00, 0x00,
  0x6d, 0x69, 0x6e, 0x5f, 0x72, 0x75, 0x6e, 0x74, 0x69, 0x6d, 0x65, 0x5f,
  0x76, 0x65, 0x72, 0x73, 0x69, 0x6f, 0x6e, 0x00, 0x0e, 0x00, 0x00, 0x00,
  0x40, 0x33, 0x00, 0x00, 0x38, 0x33, 0x00, 0x00, 0x08, 0x33, 0x00, 0x00,
  0xe8, 0x32, 0x00, 0x00, 0x58, 0x32, 0x00, 0x00, 0x48, 0x05, 0x00, 0x00,
  0x38, 0x01, 0x00, 0x00, 0xa8, 0x00, 0x00, 0x00, 0xa0, 0x00, 0x00, 0x00,
  0x98, 0x00, 0x00, 0x00, 0x90, 0x00, 0x00, 0x00, 0x88, 0x00, 0x00, 0x00,
  0x68, 0x00, 0x00, 0x00, 0x04, 0x00, 0x00, 0x00, 0x66, 0xcc, 0xff, 0xff,
  0x04, 0x00, 0x00, 0x00, 0x54, 0x00, 0x00, 0x00, 0x0c, 0x00, 0x00, 0x00,
  0x08, 0x00, 0x0e, 0x00, 0x08, 0x00, 0x04, 0x00, 0x08, 0x00, 0x00, 0x00,
  0x10, 0x00, 0x00, 0x00, 0x24, 0x00, 0x00, 0x00, 0x00, 0x00, 0x06, 0x00,
  0x08, 0x00, 0x04, 0x00, 0x06, 0x00, 0x00, 0x00, 0x04, 0x00, 0x00, 0x00,
  0x00, 0x00, 0x00, 0x00, 0x00, 0x00, 0x0a, 0x00, 0x10, 0x00, 0x0c, 0x00,
  0x08, 0x00, 0x04, 0x00, 0x0a, 0x00, 0x00, 0x00, 0x02, 0x00, 0x00, 0x00,
  0x02, 0x00, 0x00, 0x00, 0x04, 0x00, 0x00, 0x00, 0x06, 0x00, 0x00, 0x00,
  0x32, 0x2e, 0x31, 0x30, 0x2e, 0x30, 0x00, 0x00, 0xc6, 0xcc, 0xff, 0xff,
  0x04, 0x00, 0x00, 0x00, 0x10, 0x00, 0x00, 0x00, 0x31, 0x2e, 0x35, 0x2e,
  0x30, 0x00, 0x00, 0x00, 0x00, 0x00, 0x00, 0x00, 0x00, 0x00, 0x00, 0x00,
  0xd4, 0xc7, 0xff, 0xff, 0xd8, 0xc7, 0xff, 0xff, 0xdc, 0xc7, 0xff, 0xff,
  0xe0, 0xc7, 0xff, 0xff, 0xf2, 0xcc, 0xff, 0xff, 0x04, 0x00, 0x00, 0x00,
  0x80, 0x00, 0x00, 0x00, 0xf9, 0x62, 0x1b, 0x3f, 0xdf, 0x12, 0x0b, 0x3f,
  0xc1, 0xd1, 0x81, 0xbe, 0xe1, 0x30, 0x9d, 0xbf, 0xda, 0xb2, 0x64, 0x3f,
  0x47, 0x63, 0x54, 0xbe, 0xc0, 0x96, 0x5c, 0xbf, 0x05, 0x5d, 0x13, 0x3f,
  0x50, 0x6d, 0x43, 0xbe, 0x60, 0x0f, 0x8e, 0xbe, 0xf3, 0xe0, 0x48, 0x3e,
  0x7c, 0xd4, 0x1b, 0x3f, 0x56, 0x96, 0xed, 0x3e, 0xec, 0xeb, 0xb5, 0x3e,
  0x30, 0xdb, 0xb4, 0xbe, 0x5c, 0x46, 0xdd, 0xbe, 0x94, 0xc4, 0x48, 0x3e,
  0x11, 0x33, 0x95, 0xbe, 0x18, 0xf8, 0xb1, 0xbe, 0xf6, 0x16, 0x6e, 0x3e,
  0x1d, 0x44, 0xbc, 0xbf, 0x5a, 0x5d, 0xc1, 0xbe, 0xcf, 0xbe, 0x50, 0x3f,
  0xe7, 0x16, 0xd2, 0xbe, 0x6d, 0x75, 0x8f, 0xbe, 0x8a, 0x90, 0x33, 0x3e,
  0xeb, 0x9b, 0x20, 0xbf, 0x32, 0xfd, 0x15, 0x3f, 0x0f, 0xb3, 0x7b, 0xbf,
  0x26, 0xff, 0xde, 0xbe, 0x29, 0x0c, 0x88, 0xbf, 0x5f, 0xf8, 0x02, 0x3f,
  0x7e, 0xcd, 0xff, 0xff, 0x04, 0x00, 0x00, 0x00, 0x00, 0x04, 0x00, 0x00,
  0x4d, 0x76, 0x34, 0xbe, 0xd4, 0x9d, 0x3e, 0x3e, 0x40, 0x89, 0x03, 0xbc,
  0xae, 0x16, 0x66, 0xbe, 0x94, 0x2c, 0xa9, 0xbd, 0x50, 0xf5, 0xad, 0x3c,
  0xe8, 0x0d, 0x18, 0xbe, 0x84, 0x33, 0xba, 0x3d, 0x78, 0x5c, 0x4b, 0x3e,
  0x00, 0x2d, 0xcb, 0xbc, 0x4c, 0x11, 0x13, 0x3e, 0x71, 0x8f, 0x4e, 0xbe,
  0xee, 0xac, 0x85, 0xbe, 0xbc, 0x86, 0x3d, 0x3e, 0x8b, 0xdb, 0xbc, 0xbe,
  0xa3, 0x93, 0x56, 0xbe, 0x5c, 0x25, 0x69, 0x3e, 0xa0, 0x35, 0x23, 0xbe,
  0xcf, 0x1a, 0x75, 0xbe, 0xda, 0x57, 0x07, 0xbe, 0x6a, 0xaf, 0x42, 0xbe,
  0x3c, 0x6c, 0xc2, 0x3e, 0x5a, 0xd8, 0x8f, 0x3e, 0xf8, 0x31, 0xdd, 0xbd,
  0xf8, 0xe5, 0x8f, 0xbe, 0x2e, 0x8c, 0x8a, 0xbe, 0xa7, 0x7d, 0xa1, 0xbe,
  0xe0, 0xb7, 0x15, 0x3e, 0x7c, 0xc6, 0x42, 0xbe, 0x5e, 0x58, 0x85, 0x3e,
  0xf0, 0x75, 0xdb, 0x3d, 0x8e, 0x0b, 0xac, 0xbe, 0x25, 0x5c, 0x7b, 0xbe,
  0xcb, 0x92, 0xdb, 0xbd, 0x78, 0x54, 0x01, 0x3e, 0x83, 0x98, 0x8a, 0xbe,
  0x14, 0xe4, 0x81, 0xbe, 0x70, 0x19, 0xcf, 0xbc, 0x1b, 0x6d, 0x65, 0x3d,
  0xd8, 0x18, 0x16, 0x3d, 0x55, 0xa0, 0x1c, 0x3e, 0x47, 0x7b, 0x3b, 0xbc,
  0xfc, 0xf2, 0x45, 0xbd, 0xeb, 0xf6, 0x3f, 0x3e, 0x83, 0x02, 0x59, 0xbe,
  0x07, 0x4f, 0x9c, 0x3d, 0xca, 0x62, 0x32, 0x3e, 0xe4, 0xfc, 0x18, 0x3e,
  0x24, 0x8d, 0x0f, 0x3e, 0x91, 0x98, 0x66, 0xbe, 0xbe, 0x65, 0x67, 0x3e,
  0x3f, 0xad, 0xc4, 0xbe, 0xae, 0xca, 0x8e, 0xbe, 0xa2, 0x8f, 0xc5, 0xbe,
  0x10, 0x6a, 0xdb, 0x3c, 0x91, 0x45, 0x32, 0xbe, 0x22, 0xc4, 0xae, 0x3e,
  0x38, 0x9c, 0x8e, 0xbe, 0x14, 0xbc, 0xb1, 0x3d, 0xb8, 0x87, 0x04, 0x3e,
  0x39, 0x16, 0xac, 0xbe, 0x0a, 0x2f, 0xca, 0xbe, 0x64, 0xea, 0xae, 0x3e,
  0x94, 0xec, 0xd0, 0xbe, 0x1c, 0x83, 0xf3, 0xbd, 0x31, 0x53, 0xac, 0x3e,
  0x48, 0xc2, 0x61, 0x3e, 0xc8, 0x76, 0x78, 0x3e, 0xa8, 0xd7, 0x8f, 0xbe,
  0xbd, 0x5e, 0x86, 0xbe, 0x98, 0x9e, 0x5c, 0xbd, 0x00, 0x61, 0x6b, 0x3c,
  0x0b, 0x41, 0xa6, 0xbe, 0x60, 0xb0, 0x8a, 0xbe, 0x10, 0x3e, 0x36, 0xbd,
  0x30, 0xcf, 0x34, 0xbd, 0xb0, 0xc0, 0x7e, 0x3e, 0xc0, 0x87, 0x5b, 0x3e,
  0xa0, 0x3a, 0x6e, 0x3d, 0x00, 0x0b, 0xa0, 0x3e, 0xf0, 0x4d, 0x87, 0x3d,
  0x95, 0xd2, 0xc6, 0xbe, 0x2e, 0xf7, 0x82, 0xbe, 0x00, 0x71, 0x92, 0xbc,
  0x68, 0x03, 0x25, 0xbd, 0x83, 0x8b, 0x58, 0xbe, 0xea, 0x4a, 0x9b, 0x3e,
  0x0c, 0xef, 0x46, 0xbe, 0x09, 0xb5, 0x74, 0x3e, 0x40, 0xac, 0xa4, 0xbc,
  0x03, 0xca, 0x4e, 0xbe, 0x40, 0x77, 0x92, 0xbb, 0x9c, 0x9a, 0x71, 0xbd,
  0x70, 0xc4, 0x57, 0x3e, 0x17, 0xbb, 0xc4, 0xbe, 0x61, 0x9c, 0x74, 0xbe,
  0x20, 0x29, 0x01, 0xbd, 0x21, 0xed, 0x25, 0xbe, 0x38, 0x9a, 0x60, 0x3e,
  0x0d, 0xf6, 0x11, 0xbe, 0x42, 0xca, 0x9d, 0xbe, 0xae, 0x36, 0x9d, 0x3e,
  0xbe, 0x29, 0x50, 0x3e, 0x0e, 0x62, 0xa1, 0x3e, 0xf1, 0xf7, 0x64, 0x3e,
  0x5e, 0xd8, 0xd7, 0x3e, 0x0a, 0x92, 0x50, 0x3f, 0xba, 0xac, 0x5e, 0x3e,
  0x78, 0x4b, 0x8d, 0xbe, 0x45, 0x17, 0xa8, 0x3e, 0xa0, 0x7e, 0x2f, 0x3f,
  0x88, 0x89, 0x66, 0xbe, 0x40, 0x1c, 0x48, 0x3d, 0x96, 0xa4, 0xa7, 0x3e,
  0x98, 0x38, 0x1b, 0x3f, 0xb8, 0xf8, 0xee, 0x3e, 0x90, 0x8e, 0x0f, 0x3f,
  0xe0, 0x6a, 0x71, 0x3e, 0x58, 0x87, 0x9d, 0x3d, 0x24, 0x5a, 0x47, 0x3e,
  0x6a, 0x96, 0x28, 0xbd, 0x28, 0x5a, 0xac, 0x3e, 0xc9, 0x2a, 0xdb, 0xbe,
  0xa0, 0xde, 0x69, 0x3d, 0x88, 0xde, 0xd5, 0xbd, 0xfb, 0x0d, 0x98, 0xbd,
  0xa5, 0x26, 0x35, 0xbe, 0x82, 0xe1, 0x1d, 0x3f, 0xaf, 0x20, 0x1d, 0xbe,
  0x40, 0xb2, 0x20, 0x3e, 0x88, 0x19, 0x5f, 0xbe, 0xfe, 0xd8, 0x45, 0x3e,
  0xdf, 0x27, 0xc4, 0x3e, 0x10, 0xf6, 0x18, 0xbe, 0x49, 0x03, 0x31, 0xbf,
  0xd8, 0xb6, 0x2a, 0xbd, 0x52, 0x96, 0xef, 0x3e, 0x69, 0x61, 0x88, 0xbd,
  0xe2, 0xae, 0x7a, 0xbd, 0x95, 0xb4, 0xd6, 0x3e, 0x8d, 0x3c, 0xb9, 0xbe,
  0x37, 0x65, 0x06, 0x3f, 0xac, 0xe5, 0x0e, 0xbf, 0xdb, 0xf2, 0xa8, 0xbe,
  0xd1, 0xf2, 0x3f, 0xbe, 0x5a, 0x99, 0xb4, 0xbe, 0xcf, 0x83, 0x3a, 0xbf,
  0x0f, 0x12, 0x01, 0x3e, 0x2d, 0x50, 0xb8, 0xbe, 0xb8, 0x45, 0x80, 0x3e,
  0xe4, 0x95, 0xc5, 0x3e, 0xb0, 0x61, 0xcb, 0x3c, 0xf2, 0xd3, 0xd9, 0xbc,
  0xf6, 0x47, 0x8f, 0xbe, 0x58, 0xe9, 0xe9, 0xbe, 0x5c, 0x7f, 0x91, 0xbd,
  0xb1, 0xc6, 0x2a, 0x3f, 0xca, 0x53, 0x11, 0x3f, 0xa0, 0xfc, 0x81, 0x3e,
  0x30, 0xb5, 0x7a, 0xbd, 0xe8, 0x09, 0xec, 0x3d, 0xb3, 0xb8, 0xd5, 0xbe,
  0x24, 0xc5, 0x6c, 0x3e, 0x70, 0x6f, 0x0c, 0x3d, 0x15, 0xee, 0x88, 0x3e,
  0x0a, 0xfb, 0xba, 0x3e, 0x1a, 0xb9, 0x54, 0xbe, 0x0c, 0x6d, 0x17, 0x3e,
  0x07, 0x42, 0x7e, 0xbe, 0x83, 0x4f, 0x8d, 0xbe, 0x09, 0x77, 0xb4, 0xbe,
  0x7e, 0xcb, 0xb6, 0xbe, 0x34, 0xb5, 0xce, 0xbd, 0x7a, 0xc3, 0x12, 0xbe,
  0x6a, 0x75, 0xd2, 0xbe, 0xe0, 0xfa, 0x79, 0xbd, 0x00, 0x70, 0xc7, 0xbb,
  0x11, 0xa6, 0x02, 0x3e, 0x42, 0x6b, 0x85, 0xbd, 0x9a, 0x40, 0x91, 0x3e,
  0x38, 0x93, 0x89, 0xbc, 0x88, 0x80, 0x32, 0x3e, 0x40, 0x52, 0x72, 0xbd,
  0x5e, 0xc3, 0xaf, 0xbe, 0xc6, 0xd2, 0x99, 0xbe, 0x34, 0xe1, 0xb7, 0x3d,
  0xc2, 0x48, 0x31, 0x3e, 0x16, 0x99, 0x80, 0x3e, 0xcb, 0xfd, 0x58, 0x3d,
  0x32, 0x9d, 0x68, 0x3e, 0x0c, 0x05, 0x06, 0x3e, 0x9d, 0x3e, 0x1e, 0xbd,
  0x58, 0x7c, 0xb2, 0xbe, 0x1f, 0x48, 0x43, 0x3e, 0xb8, 0xc1, 0x5d, 0x3d,
  0xbd, 0x59, 0x99, 0xbe, 0x4d, 0xa8, 0xa8, 0xbe, 0x3d, 0xce, 0xa2, 0xbe,
  0xa2, 0xc7, 0x6c, 0x3f, 0x0c, 0x77, 0xa2, 0xbd, 0x1a, 0xad, 0x0d, 0x3f,
  0xf5, 0xec, 0xb3, 0x3e, 0xc9, 0x5f, 0x1d, 0xbc, 0xa2, 0xcc, 0x97, 0x3d,
  0xa6, 0xd1, 0xa1, 0xbc, 0xa0, 0xfc, 0x0e, 0x3e, 0xc0, 0xd2, 0xa6, 0x3d,
  0xe6, 0x19, 0x0d, 0x3f, 0xe5, 0x9a, 0x66, 0xbe, 0x59, 0x4f, 0x47, 0x3f,
  0x02, 0x62, 0x00, 0x3f, 0x31, 0x91, 0x5d, 0xbd, 0xc7, 0x9c, 0x4d, 0x3c,
  0x9c, 0x55, 0xa5, 0x3d, 0x46, 0x6e, 0x91, 0x3e, 0x57, 0xa9, 0x76, 0xbe,
  0x8b, 0x28, 0x0d, 0xbf, 0x58, 0x2b, 0xbe, 0x3e, 0xad, 0x9b, 0x32, 0xbf,
  0xe4, 0xb0, 0x13, 0x3e, 0xd6, 0x07, 0xab, 0x3e, 0x1a, 0x8d, 0x13, 0xbf,
  0xfe, 0xf1, 0xa7, 0x3e, 0xc2, 0xc2, 0x42, 0xbf, 0x7e, 0x9f, 0x8c, 0x3e,
  0xce, 0x17, 0x88, 0xbe, 0xa6, 0xea, 0xbc, 0x3e, 0xf4, 0x0f, 0xc0, 0xbe,
  0x46, 0xf3, 0x1c, 0x3f, 0xe8, 0x80, 0x1f, 0x3e, 0xec, 0xb6, 0x7b, 0xbe,
  0xb8, 0xb8, 0x84, 0x3e, 0xc8, 0xea, 0x0f, 0xbe, 0x33, 0xa6, 0x1f, 0xbf,
  0xbb, 0x43, 0xeb, 0xbe, 0xad, 0x01, 0x84, 0x3e, 0x7a, 0x91, 0x39, 0x3e,
  0x3d, 0x23, 0xa1, 0xbe, 0x57, 0xd0, 0x55, 0x3e, 0xc9, 0x0b, 0x2a, 0xbf,
  0x60, 0xc6, 0x91, 0x3e, 0xc7, 0xf2, 0x36, 0xbe, 0x02, 0x0c, 0xb3, 0xbe,
  0x71, 0x5b, 0x29, 0xbd, 0x60, 0xb5, 0xa1, 0xbd, 0x10, 0xa5, 0x5b, 0xbe,
  0x04, 0x3f, 0x1d, 0xbe, 0x9f, 0xd4, 0xb4, 0xbe, 0xb3, 0x18, 0x4e, 0x3f,
  0x1e, 0x25, 0xc0, 0xbe, 0x3f, 0x16, 0x9f, 0x3f, 0xf0, 0xbf, 0x91, 0xbd,
  0x98, 0xda, 0x14, 0x3e, 0x05, 0xe7, 0x38, 0x3f, 0x34, 0x5f, 0xaf, 0x3e,
  0x75, 0x58, 0x0a, 0x3f, 0x8a, 0xd1, 0xff, 0xff, 0x04, 0x00, 0x00, 0x00,
  0x00, 0x2d, 0x00, 0x00, 0x3a, 0xd7, 0x17, 0xbe, 0x30, 0xcc, 0x86, 0x3c,
  0xe8, 0x94, 0x41, 0x3d, 0xf6, 0xde, 0x18, 0xbe, 0xc4, 0xf0, 0x16, 0xbe,
  0xdc, 0xa8, 0x4a, 0xbe, 0x95, 0xb1, 0x4e, 0xbe, 0xfe, 0x9e, 0x16, 0xbe,
  0xba, 0x66, 0x09, 0x3e, 0xe8, 0xfb, 0x74, 0x3d, 0x1a, 0xb2, 0x2d, 0xbe,
  0x5b, 0xaa, 0xdb, 0xbd, 0x20, 0x7f, 0xf4, 0xbc, 0x28, 0xfc, 0x5a, 0x3d,
  0x48, 0x09, 0x99, 0x3d, 0xc0, 0x56, 0x5c, 0xbe, 0xab, 0x85, 0x1e, 0xbe,
  0xa4, 0x9f, 0x79, 0xbd, 0x00, 0xcb, 0xc5, 0xbb, 0xec, 0x52, 0x3d, 0x3e,
  0x12, 0x33, 0x26, 0xbe, 0xe2, 0x1d, 0x41, 0xbe, 0x08, 0x1b, 0x10, 0x3e,
  0xb8, 0xa2, 0x7f, 0x3d, 0x60, 0x6a, 0x0a, 0xbe, 0xe8, 0xbb, 0x21, 0x3d,
  0xc6, 0x84, 0x89, 0xbd, 0xfc, 0x95, 0x6f, 0xbd, 0xf0, 0xf7, 0x8c, 0x3c,
  0xea, 0x97, 0x8e, 0xbd, 0xf8, 0x5e, 0x2e, 0xbd, 0x89, 0xff, 0x46, 0xbe,
  0xe0, 0x95, 0x53, 0x3d, 0x7a, 0xeb, 0xce, 0xbd, 0x72, 0xae, 0xe6, 0xbd,
  0xbe, 0x7e, 0x56, 0x3e, 0x38, 0xa0, 0x84, 0x3d, 0xee, 0xfe, 0x94, 0xbd,
  0x8a, 0x71, 0x62, 0xbe, 0xf4, 0xe1, 0xaf, 0xbd, 0xf1, 0xae, 0x02, 0xbe,
  0xf4, 0xd2, 0x16, 0xbe, 0xb2, 0x41, 0xc0, 0xbd, 0xb4, 0xae, 0xfd, 0x3d,
  0x50, 0x94, 0x3e, 0x3d, 0x24, 0xc4, 0x54, 0x3e, 0xb0, 0x26, 0xf1, 0xbd,
  0x39, 0x24, 0x46, 0xbe, 0x18, 0x12, 0x36, 0x3d, 0xe8, 0x69, 0x56, 0x3d,
  0x3c, 0x63, 0xaf, 0xbd, 0x18, 0x2e, 0xe3, 0xbd, 0x02, 0xee, 0x0b, 0x3e,
  0x50, 0xa5, 0xcc, 0xbc, 0x80, 0x8a, 0x6e, 0xbb, 0x80, 0xad, 0x5b, 0x3d,
  0x08, 0x6c, 0xa4, 0x3d, 0x80, 0x23, 0x11, 0xbe, 0xa0, 0x3f, 0xbd, 0x3c,
  0xf2, 0xc2, 0x0b, 0x3e, 0x0e, 0x0e, 0x0c, 0xbe, 0xf0, 0x54, 0x05, 0x3d,
  0xf6, 0xf6, 0x54, 0x3e, 0x94, 0x7c, 0x31, 0x3e, 0xf8, 0xc7, 0x08, 0xbd,
  0x84, 0xfc, 0x59, 0xbd, 0x8c, 0x00, 0x28, 0xbd, 0xc2, 0xb7, 0xaf, 0xbd,
  0x2a, 0xc0, 0xb5, 0xbd, 0xa0, 0x56, 0x85, 0x3c, 0x8c, 0xaf, 0x9d, 0x3d,
  0x4c, 0x23, 0xd9, 0x3d, 0x19, 0x49, 0xd4, 0xbd, 0x16, 0x76, 0x24, 0x3e,
  0xcc, 0xc7, 0x41, 0x3e, 0x52, 0x80, 0x1f, 0xbe, 0x84, 0xce, 0x52, 0xbe,
  0xfe, 0xd1, 0x14, 0x3e, 0x88, 0xa8, 0x5e, 0xbe, 0xf6, 0x3e, 0x51, 0x3e,
  0xe0, 0xc5, 0x21, 0xbe, 0x96, 0x59, 0x34, 0xbe, 0x70, 0x60, 0x2b, 0x3d,
  0x8b, 0xa1, 0xde, 0xbd, 0x7c, 0x5f, 0xbb, 0x3d, 0x5a, 0xc2, 0x2a, 0x3e,
  0x84, 0x47, 0x2d, 0x3e, 0x2c, 0xc5, 0x09, 0xbd, 0xac, 0x40, 0xe1, 0x3d,
  0x6f, 0x62, 0x0b, 0xbe, 0xe9, 0xf8, 0x28, 0x3e, 0x8b, 0x08, 0xa4, 0xbd,
  0xfa, 0x4f, 0x58, 0xbd, 0x50, 0x87, 0x2c, 0x3e, 0xf0, 0x53, 0x8b, 0xbd,
  0x79, 0x92, 0x86, 0xbe, 0x3f, 0x8c, 0x9c, 0x3d, 0x9b, 0xa1, 0x15, 0xbe,
  0x81, 0xf1, 0x60, 0xbe, 0x4c, 0x86, 0xb7, 0xbc, 0x68, 0x09, 0x15, 0x3e,
  0x09, 0xde, 0x06, 0x3c, 0xdf, 0x54, 0xb4, 0x3e, 0x45, 0x19, 0x8f, 0x3d,
  0x52, 0x91, 0xb6, 0xbd, 0x61, 0x16, 0xf4, 0xbd, 0x17, 0x56, 0xfc, 0x3d,
  0x20, 0xe7, 0x68, 0xbd, 0x6b, 0xe7, 0xaf, 0x3e, 0xdb, 0x7d, 0xf8, 0xbd,
  0x7d, 0x7a, 0x8b, 0xbe, 0xe0, 0xd4, 0x8c, 0xbb, 0xa1, 0x4d, 0xd3, 0x3d,
  0x80, 0x4c, 0x50, 0xbe, 0x7d, 0x05, 0x0b, 0x3d, 0x18, 0x1b, 0x52, 0xbe,
  0x10, 0x51, 0x8d, 0xbe, 0x39, 0x35, 0x01, 0x3e, 0xb4, 0xe0, 0x7c, 0xbe,
  0xb8, 0xa2, 0x10, 0x3e, 0xd7, 0x62, 0x89, 0xbd, 0x0e, 0x78, 0x4e, 0xbe,
  0xff, 0x01, 0x7e, 0xbe, 0x12, 0xa6, 0x91, 0xbd, 0xe3, 0x67, 0x58, 0xbe,
  0xbc, 0x6d, 0xf4, 0x3d, 0xef, 0xc3, 0x9d, 0x3e, 0xa8, 0xda, 0x36, 0x3d,
  0xad, 0x8e, 0xd1, 0xbd, 0x8a, 0x63, 0x1a, 0x3e, 0x5e, 0xfb, 0xc6, 0xbc,
  0x93, 0xd7, 0x0c, 0x3e, 0x67, 0x4a, 0x83, 0x3e, 0x38, 0xfa, 0x2c, 0xba,
  0x87, 0x91, 0xb5, 0x3c, 0x89, 0x38, 0x8e, 0x3d, 0x8a, 0x85, 0x5c, 0xbe,
  0x90, 0xe2, 0x99, 0xbd, 0x32, 0x7b, 0xc7, 0x3c, 0xbb, 0x12, 0xa1, 0x3d,
  0xe3, 0x64, 0xfd, 0x3d, 0x47, 0xac, 0x0c, 0xbe, 0xa7, 0x8a, 0xa5, 0x3d,
  0x39, 0x9c, 0x61, 0x3d, 0x59, 0xce, 0x0f, 0xbe, 0x3c, 0xe2, 0x48, 0xbe,
  0x4e, 0xd7, 0x76, 0xbd, 0xd4, 0xbc, 0x67, 0x3e, 0xba, 0x3f, 0x37, 0xbe,
  0x71, 0xb3, 0xd9, 0xbc, 0xea, 0xc5, 0x7e, 0x3d, 0x4e, 0x76, 0x2b, 0xbd,
  0xe7, 0x5f, 0x9a, 0xbd, 0x99, 0x68, 0xcb, 0x3d, 0x3a, 0xb8, 0xe4, 0xbd,
  0x85, 0x87, 0xbc, 0xbd, 0x2b, 0xa5, 0xad, 0xbd, 0x74, 0xb1, 0xcf, 0xbd,
  0x9c, 0x82, 0x2d, 0x3e, 0x3a, 0x55, 0x26, 0xbe, 0xf9, 0xa7, 0x55, 0x3e,
  0x7e, 0xcb, 0x22, 0xbe, 0xb3, 0xc3, 0x4d, 0x3e, 0x47, 0x72, 0x15, 0xbe,
  0x8d, 0x6b, 0xb7, 0x3d, 0xa4, 0xf1, 0x47, 0x3d, 0x1a, 0x5d, 0x05, 0xbe,
  0x39, 0x96, 0xbc, 0x3d, 0x69, 0xbf, 0xd8, 0x3e, 0xde, 0x00, 0x64, 0x3c,
  0x04, 0xd7, 0x93, 0x3e, 0x2b, 0x1e, 0x84, 0x3d, 0x1a, 0x5a, 0x0c, 0x3e,
  0xb8, 0x5e, 0x79, 0x3e, 0x80, 0xbe, 0xc6, 0x3e, 0x0a, 0xcf, 0xc4, 0x3d,
  0xd3, 0x7a, 0xbb, 0x3d, 0xfe, 0x55, 0xb9, 0xbd, 0x82, 0xbc, 0x39, 0x3c,
  0x76, 0xad, 0xc4, 0xbc, 0xd0, 0xad, 0xf7, 0x3d, 0x96, 0x9a, 0xcd, 0xbd,
  0x14, 0x84, 0x8b, 0x3d, 0x3c, 0x94, 0x5b, 0x3e, 0x84, 0x76, 0x00, 0xbe,
  0xb6, 0x6e, 0x36, 0xbe, 0x05, 0x78, 0xde, 0xbd, 0x98, 0xd7, 0x15, 0xbd,
  0x92, 0x31, 0x3e, 0xbe, 0x14, 0x51, 0xd3, 0x3d, 0x00, 0x4a, 0x31, 0x3e,
  0x1f, 0x3e, 0x27, 0xbe, 0x74, 0x66, 0x8f, 0x3d, 0x08, 0x3b, 0xca, 0xbc,
  0x44, 0x0a, 0xc6, 0xbd, 0xf0, 0x77, 0x5f, 0xbe, 0xce, 0x82, 0x09, 0x3e,
  0xe6, 0xc7, 0x34, 0x3e, 0x74, 0x54, 0xcc, 0x3d, 0xb4, 0x02, 0xcc, 0xbd,
  0x60, 0xb2, 0x07, 0xbd, 0xd8, 0xf8, 0x1d, 0xbe, 0x20, 0x65, 0x33, 0x3e,
  0x2a, 0x89, 0x3c, 0xbe, 0x1b, 0x2c, 0xf8, 0xbd, 0x0c, 0x73, 0x14, 0xbd,
  0xb0, 0x87, 0x0b, 0xbc, 0x46, 0x7b, 0x21, 0x3e, 0x0b, 0x3d, 0x2a, 0xbe,
  0x63, 0xb6, 0x53, 0xbe, 0x08, 0x18, 0x5b, 0xbe, 0xd9, 0x8b, 0xd2, 0xbd,
  0x38, 0xda, 0xf7, 0xbd, 0xe0, 0xa9, 0x25, 0xbd, 0x34, 0x3e, 0x9b, 0x3d,
  0xfa, 0x84, 0x5d, 0x3e, 0x78, 0xc2, 0x12, 0x3e, 0x5c, 0x8d, 0x1b, 0x3e,
  0xe0, 0x4d, 0xb7, 0xbc, 0xa0, 0x4b, 0x44, 0x3c, 0x00, 0x9a, 0x88, 0xba,
  0xae, 0xf8, 0xf6, 0xbd, 0xb5, 0x1d, 0x3c, 0xbe, 0x3a, 0xbf, 0x82, 0xbd,
  0x98, 0xd5, 0x68, 0x3d, 0x28, 0xf4, 0x06, 0x3d, 0x68, 0xf4, 0x9b, 0x3d,
  0x50, 0x42, 0xe0, 0xbc, 0x00, 0x0f, 0x61, 0xbb, 0xfc, 0x98, 0x8d, 0x3d,
  0x0a, 0xf0, 0x56, 0xbe, 0x8c, 0x40, 0xb6, 0x3d, 0x05, 0x27, 0x0f, 0xbe,
  0x68, 0xcb, 0x4e, 0x3d, 0x50, 0x2a, 0xc3, 0xbc, 0x98, 0x4f, 0x02, 0x3e,
  0xb8, 0x9d, 0x79, 0x3d, 0x78, 0x94, 0x41, 0x3e, 0xac, 0x68, 0x03, 0x3e,
  0x44, 0x69, 0xfd, 0x3d, 0xbc, 0x5a, 0x55, 0x3e, 0x44, 0xd9, 0xe0, 0x3d,
  0x70, 0x4e, 0x29, 0xbe, 0x96, 0xd0, 0xdd, 0xbd, 0x32, 0x98, 0x53, 0x3e,
  0x18, 0x70, 0xdb, 0x3c, 0x9d, 0xfa, 0x21, 0xbe, 0x8e, 0x95, 0x56, 0xbe,
  0x12, 0x66, 0xc5, 0xbd, 0xac, 0x4d, 0xad, 0x3d, 0x56, 0x25, 0x14, 0x3e,
  0x05, 0xbf, 0x0b, 0xbe, 0x16, 0xd9, 0x90, 0xbd, 0x25, 0xac, 0x30, 0xbe,
  0xb0, 0xeb, 0x7a, 0x3d, 0x66, 0x52, 0x2e, 0x3e, 0xc8, 0x09, 0x49, 0x3e,
  0xf0, 0x3e, 0x6f, 0xbd, 0x10, 0x9e, 0x92, 0xbc, 0xc6, 0x99, 0x59, 0xbe,
  0x7c, 0x7f, 0xbf, 0xbd, 0x97, 0xfa, 0xd1, 0xbd, 0xdc, 0x52, 0x31, 0xbe,
  0x98, 0xeb, 0xac, 0xbd, 0x6a, 0x9d, 0x3a, 0x3e, 0x80, 0xb3, 0x39, 0xbd,
  0xd6, 0x5f, 0x33, 0xbe, 0xa0, 0x9a, 0x89, 0x3d, 0x6c, 0x39, 0xff, 0x3d,
  0x34, 0x48, 0x3d, 0x3e, 0x84, 0x6c, 0xb4, 0xbc, 0x92, 0x20, 0x14, 0xbe,
  0x1a, 0xea, 0x0b, 0xbe, 0xb4, 0x99, 0xe0, 0x3d, 0xf7, 0x36, 0x31, 0x3e,
  0x50, 0x18, 0x46, 0xbe, 0x73, 0x97, 0xa3, 0xbd, 0xdd, 0xf5, 0x00, 0x3c,
  0x60, 0xc0, 0x87, 0xbd, 0x11, 0x08, 0x31, 0x3e, 0x54, 0x74, 0x2e, 0xbe,
  0xa8, 0xb7, 0xed, 0xbd, 0x0d, 0x7f, 0x11, 0x3e, 0x75, 0xc6, 0x2e, 0x3e,
  0x88, 0x41, 0x24, 0x3e, 0x82, 0x5c, 0x31, 0xbe, 0x10, 0x75, 0xf2, 0xbd,
  0x79, 0x35, 0xf6, 0x3c, 0x3b, 0x79, 0x55, 0x3d, 0x2b, 0xa9, 0xd2, 0x3c,
  0x50, 0xe2, 0x1a, 0xbe, 0x08, 0x11, 0xdc, 0xbc, 0x8c, 0x9e, 0x1c, 0xbc,
  0xf1, 0x04, 0xd7, 0x3d, 0x9d, 0x5e, 0x4a, 0x3e, 0xff, 0x76, 0x28, 0xbe,
  0xc7, 0x39, 0x49, 0x3e, 0x27, 0xd2, 0xfd, 0x3d, 0xf9, 0xcc, 0x4e, 0xbd,
  0xdc, 0xc9, 0x31, 0x3e, 0x73, 0x42, 0x61, 0xbe, 0x86, 0xd1, 0x71, 0xbd,
  0x18, 0x5c, 0x69, 0xbe, 0xa6, 0x71, 0x3b, 0x3e, 0xc2, 0xde, 0x24, 0x3c,
  0x5c, 0xb0, 0xf2, 0x3d, 0x17, 0x81, 0x03, 0x3d, 0x81, 0x23, 0x46, 0xbd,
  0xee, 0x84, 0x3d, 0xbe, 0xb3, 0x81, 0x6a, 0xbe, 0x8f, 0x55, 0xf9, 0xbc,
  0x19, 0xb5, 0xd7, 0xbd, 0x34, 0xba, 0xa4, 0xbc, 0xb6, 0x75, 0x3a, 0x3e,
  0x06, 0xa5, 0xc5, 0x3a, 0xa9, 0x34, 0x7e, 0xbc, 0x9e, 0xb0, 0x05, 0xbe,
  0xa0, 0x1d, 0x2e, 0xbe, 0xab, 0xba, 0xb5, 0xbd, 0xbd, 0x85, 0x11, 0xbe,
  0x91, 0x6a, 0x54, 0xbd, 0x11, 0x9f, 0x92, 0xbd, 0xfe, 0xdc, 0x03, 0xbe,
  0x27, 0x2e, 0x69, 0xbd, 0x88, 0xa0, 0x0a, 0x3e, 0xaf, 0xd4, 0x42, 0x3e,
  0xd8, 0xa9, 0x39, 0x3d, 0x5c, 0xc6, 0xa8, 0xbd, 0xa8, 0x39, 0xcb, 0x3d,
  0x50, 0xb5, 0x8c, 0xbd, 0x76, 0x13, 0xdb, 0xbd, 0xa7, 0x14, 0x26, 0xbe,
  0x8e, 0xf8, 0xde, 0x3d, 0x64, 0x5a, 0xc1, 0xbd, 0x56, 0x04, 0x8e, 0xbd,
  0x2c, 0xe2, 0x96, 0x3d, 0xf5, 0xdc, 0x6a, 0x3d, 0x63, 0x03, 0x19, 0xbe,
  0x84, 0x84, 0xf2, 0x3d, 0x53, 0x46, 0x4f, 0x3e, 0x30, 0xb5, 0x22, 0x3e,
  0xbb, 0xc9, 0x11, 0x3e, 0x54, 0x83, 0x29, 0xbe, 0x02, 0xca, 0x4b, 0x3e,
  0x48, 0x26, 0x10, 0xbd, 0xe1, 0x53, 0x1a, 0xbe, 0x10, 0xac, 0x0b, 0x3b,
  0xcd, 0x02, 0x04, 0xbe, 0x49, 0xc0, 0x57, 0xbe, 0x5e, 0x6a, 0x03, 0x3e,
  0xc2, 0x79, 0xf6, 0x3d, 0x59, 0xbd, 0xcb, 0x3d, 0x66, 0xf6, 0x3b, 0xbe,
  0xcd, 0xb8, 0x9c, 0xbd, 0xd5, 0xf6, 0xcb, 0x3d, 0x0f, 0x61, 0x30, 0xbe,
  0x6b, 0x3d, 0x22, 0x3e, 0xf6, 0xa7, 0xde, 0xbd, 0xe8, 0x07, 0x12, 0x3e,
  0xa0, 0x3d, 0x24, 0xbe, 0x2c, 0x77, 0xbf, 0x3d, 0x94, 0x6b, 0x89, 0xbe,
  0xc9, 0x9b, 0xdc, 0x3d, 0x20, 0xc5, 0xa3, 0xbe, 0x3e, 0xef, 0x36, 0x3e,
  0xa2, 0x4d, 0x9c, 0x3d, 0xa2, 0xa7, 0x60, 0x3e, 0x2d, 0xe6, 0x9b, 0xbe,
  0x73, 0x36, 0x84, 0x3e, 0x92, 0xc3, 0x55, 0xbe, 0x99, 0x2b, 0x1f, 0xbe,
  0x21, 0x55, 0x52, 0x3d, 0x2b, 0x8d, 0x8a, 0x3e, 0xe5, 0x48, 0x96, 0x3d,
  0xf1, 0x5e, 0x4e, 0x3e, 0x59, 0xbb, 0xae, 0x3d, 0xab, 0xbf, 0x84, 0x3e,
  0x21, 0x36, 0x81, 0x3d, 0x33, 0xa2, 0x99, 0xbd, 0xb1, 0x41, 0x7b, 0xbb,
  0x7d, 0xda, 0x01, 0x3d, 0x6d, 0x45, 0x18, 0x3d, 0x36, 0x44, 0x8b, 0x3e,
  0x09, 0x77, 0x8e, 0x3d, 0x4b, 0x4b, 0xd5, 0x3e, 0xa3, 0x66, 0x91, 0x3c,
  0x05, 0xe9, 0xb6, 0x3c, 0xd2, 0x75, 0xa2, 0xbd, 0x4e, 0xf3, 0x17, 0x3d,
  0xaa, 0x23, 0x06, 0xbe, 0x01, 0x48, 0x93, 0x3e, 0x57, 0xa2, 0xba, 0xbd,
  0xf1, 0x08, 0x4e, 0x3e, 0xf2, 0x4a, 0x32, 0xbd, 0x41, 0xae, 0xc1, 0xbd,
  0x17, 0x43, 0x7f, 0x3e, 0x28, 0x56, 0xfe, 0x3e, 0xc7, 0xee, 0x09, 0xbe,
  0xd3, 0x4d, 0x16, 0x3d, 0x09, 0xed, 0xfd, 0xbd, 0x9d, 0x4f, 0xcb, 0x3d,
  0xe1, 0x77, 0x2f, 0x3d, 0xb6, 0xcf, 0xf1, 0x3d, 0x12, 0xcd, 0x99, 0xbe,
  0xe0, 0x25, 0x58, 0x3d, 0x2d, 0x07, 0xf7, 0xbc, 0x04, 0x74, 0x23, 0x3e,
  0x52, 0x16, 0x05, 0x3e, 0x4c, 0x4c, 0x89, 0x3e, 0x77, 0x7b, 0x01, 0xbd,
  0x16, 0x8f, 0x5b, 0xbe, 0x14, 0x71, 0x36, 0x3e, 0x9b, 0xf7, 0x83, 0x3e,
  0xf2, 0x46, 0x97, 0x3d, 0xa8, 0x44, 0x9c, 0x3e, 0x1e, 0xbb, 0x41, 0xbe,
  0x52, 0x16, 0x26, 0xbe, 0xcc, 0x5f, 0xb8, 0x3d, 0xa6, 0xa0, 0xfd, 0xbb,
  0x57, 0xb5, 0x03, 0xbe, 0x21, 0xbf, 0x45, 0x3d, 0x63, 0x65, 0x51, 0xbd,
  0x4e, 0xfb, 0xac, 0xbe, 0x92, 0x67, 0x85, 0x3d, 0xdd, 0x3c, 0x4a, 0xbd,
  0xfc, 0x9d, 0x20, 0x3d, 0x17, 0xe7, 0xba, 0x3e, 0x38, 0x84, 0x64, 0x3c,
  0x1a, 0x01, 0xf1, 0xbd, 0xc2, 0x77, 0x60, 0x3c, 0x01, 0x1d, 0x3c, 0x3e,
  0x6e, 0x9c, 0xeb, 0xbc, 0xee, 0xc4, 0xb4, 0x3e, 0xa7, 0x41, 0x10, 0xbd,
  0x6e, 0x3e, 0x57, 0xbe, 0x69, 0x78, 0x50, 0xbe, 0xf2, 0x9a, 0x6a, 0x3e,
  0xce, 0x6e, 0x2d, 0x3d, 0x6a, 0xc9, 0x3b, 0x3e, 0xbc, 0x22, 0x37, 0x3e,
  0x71, 0xc6, 0x50, 0xbe, 0x06, 0x20, 0xbc, 0x3d, 0xe5, 0x50, 0x9f, 0x3c,
  0xca, 0x32, 0x13, 0xbd, 0x6a, 0x3c, 0x88, 0x3e, 0xd1, 0xd6, 0x47, 0x3e,
  0xf0, 0x64, 0x08, 0x3c, 0x8d, 0xc7, 0x7d, 0x3d, 0xd3, 0xac, 0xf9, 0x3d,
  0xb7, 0x6b, 0xb3, 0x3d, 0x59, 0x26, 0x4f, 0x3e, 0x70, 0x65, 0xcc, 0x3d,
  0xaa, 0x91, 0x54, 0xbd, 0x9a, 0x63, 0x9f, 0x3d, 0x9a, 0x5f, 0x60, 0x3d,
  0x69, 0xa0, 0x65, 0xbe, 0xab, 0x37, 0x8b, 0xbd, 0x29, 0x59, 0xd5, 0x3c,
  0x0f, 0x69, 0x34, 0xbd, 0xc2, 0x05, 0x1d, 0xbe, 0x8f, 0x28, 0x69, 0xbe,
  0xb3, 0x77, 0x17, 0xbe, 0xf1, 0x0b, 0x10, 0x3e, 0x5f, 0xe2, 0x20, 0xbe,
  0x60, 0xec, 0x23, 0xbe, 0x53, 0x6f, 0x37, 0xbd, 0xe6, 0x7b, 0x24, 0xbd,
  0xa5, 0xaf, 0xd1, 0x3d, 0x5d, 0x78, 0x33, 0xbb, 0x2e, 0x4b, 0x5f, 0xbe,
  0xf1, 0x93, 0x4e, 0x3e, 0x38, 0x5d, 0x1a, 0x3d, 0xee, 0xb2, 0x99, 0xbd,
  0x19, 0x6e, 0x2d, 0xbc, 0xd9, 0xe5, 0x4f, 0x3d, 0xdb, 0x53, 0x45, 0xbe,
  0xd5, 0xa5, 0xb1, 0x3d, 0x2f, 0x3e, 0x05, 0xbe, 0x37, 0xea, 0xf1, 0x3d,
  0x39, 0xeb, 0xb8, 0x3b, 0x97, 0xc2, 0x48, 0x3d, 0x66, 0x4b, 0xd8, 0xbd,
  0xb8, 0xbd, 0x35, 0xbe, 0x93, 0x32, 0x40, 0xbe, 0xa9, 0x33, 0x08, 0x3d,
  0x3f, 0x57, 0x24, 0x3e, 0x3d, 0x17, 0x9e, 0x3c, 0x81, 0xd1, 0x93, 0x3d,
  0x59, 0x3f, 0x7a, 0xbd, 0x7f, 0xb0, 0x03, 0xbe, 0x2e, 0xeb, 0x04, 0x3e,
  0x89, 0xd7, 0x50, 0x3d, 0x8e, 0x04, 0x9f, 0xbd, 0x4e, 0x3e, 0x33, 0x3c,
  0xb1, 0xd2, 0xde, 0xbd, 0xd5, 0xa8, 0x0e, 0xbd, 0x3d, 0xb8, 0xe6, 0xbc,
  0x97, 0xdd, 0xca, 0xbd, 0xf7, 0xf0, 0x1f, 0x3e, 0xdd, 0xf6, 0xc4, 0x3d,
  0xbc, 0x95, 0x42, 0x3e, 0x47, 0xa4, 0x3c, 0x3e, 0x33, 0x5a, 0xbc, 0xbd,
  0x97, 0xca, 0x1c, 0xbe, 0x30, 0xdd, 0x22, 0xbd, 0x39, 0xb9, 0xf7, 0x3d,
  0xe6, 0x10, 0x39, 0xbe, 0x3e, 0x7a, 0x98, 0xbc, 0x87, 0x8c, 0x01, 0x3d,
  0x6f, 0x5a, 0x12, 0x3e, 0xa4, 0x1d, 0x04, 0xbe, 0x53, 0x63, 0x84, 0x3c,
  0xcf, 0x3b, 0x78, 0xbd, 0xf0, 0xc7, 0x59, 0xbe, 0x6f, 0xe8, 0xbf, 0x3d,
  0xb9, 0xed, 0x57, 0xbe, 0xee, 0xd1, 0x57, 0xbe, 0x75, 0x18, 0x09, 0x3e,
  0xac, 0x9e, 0x9e, 0x3c, 0x1d, 0x34, 0x0a, 0x3d, 0x85, 0xd5, 0x3b, 0xbe,
  0xea, 0xee, 0x46, 0x3e, 0xfd, 0x5b, 0xeb, 0x3d, 0x06, 0x84, 0x5f, 0xbd,
  0x0d, 0x47, 0x7f, 0x3c, 0x8e, 0x98, 0xc2, 0xbd, 0xa6, 0xcf, 0x00, 0xbe,
  0x25, 0xae, 0x27, 0xbd, 0x06, 0x66, 0x47, 0xbe, 0x13, 0xeb, 0x1e, 0x3e,
  0xbe, 0xf8, 0xbd, 0x3d, 0x2d, 0xfa, 0x54, 0x3e, 0x92, 0xcf, 0x40, 0xbe,
  0x95, 0xb8, 0x2f, 0x3e, 0xf3, 0x7b, 0xa1, 0xbd, 0x12, 0x9b, 0x8a, 0xbc,
  0x54, 0x30, 0xe2, 0x3d, 0x5b, 0xc0, 0x8a, 0x3d, 0xb1, 0xda, 0x07, 0xbd,
  0xb9, 0x2a, 0x2f, 0x3e, 0x54, 0x65, 0x8b, 0x3e, 0xb7, 0x9a, 0x08, 0x3d,
  0xef, 0xfb, 0x6b, 0xbe, 0x52, 0x26, 0xa4, 0xbd, 0x59, 0x11, 0x8b, 0xbc,
  0xbf, 0x19, 0xe0, 0xbd, 0x55, 0xf2, 0xb1, 0x3d, 0x7d, 0xe0, 0x1b, 0xbc,
  0x68, 0x3c, 0x67, 0xbe, 0xc2, 0x62, 0x25, 0xbd, 0x83, 0xdd, 0x5e, 0xbe,
  0xd5, 0x7e, 0xab, 0xbc, 0xd5, 0x88, 0x51, 0xbe, 0xc7, 0xef, 0x1e, 0x3e,
  0x14, 0x8c, 0xcc, 0xbd, 0xd6, 0x2a, 0x2e, 0x3d, 0x6c, 0x61, 0x80, 0xbe,
  0x85, 0x56, 0x63, 0x3e, 0x68, 0x13, 0x4f, 0xbd, 0xcc, 0x94, 0x34, 0x3e,
  0x9b, 0x7d, 0x89, 0xbe, 0x5b, 0xad, 0x06, 0xbe, 0x36, 0xa8, 0x7c, 0xbe,
  0xa0, 0xaa, 0x0c, 0x3d, 0x37, 0x56, 0xc6, 0xbe, 0xa3, 0x81, 0x9f, 0x3d,
  0x03, 0xc8, 0x3c, 0xbd, 0xef, 0x27, 0x55, 0xbe, 0x50, 0xb7, 0x3c, 0xbe,
  0x4e, 0x48, 0x91, 0xbd, 0x4f, 0x0e, 0xc7, 0xbe, 0x12, 0x71, 0x9f, 0x3e,
  0x24, 0xdb, 0x9a, 0x3c, 0x3c, 0x39, 0x36, 0x3e, 0x0f, 0xcf, 0x33, 0xbc,
  0x81, 0xf4, 0xe6, 0xbd, 0x73, 0x59, 0x77, 0xbe, 0xa9, 0x45, 0x35, 0x3e,
  0xc9, 0xef, 0x0d, 0xbd, 0xf4, 0xc8, 0x8a, 0xbe, 0xab, 0xa2, 0x7c, 0xbc,
  0x61, 0x39, 0x8b, 0xbe, 0xd9, 0x54, 0x7d, 0xbe, 0xd9, 0xc7, 0x84, 0x3e,
  0xb7, 0x8b, 0x79, 0x3e, 0x0f, 0x36, 0x65, 0x3c, 0xfc, 0x7a, 0x82, 0x3d,
  0x43, 0xce, 0xca, 0xbd, 0x1d, 0x7c, 0xec, 0xbe, 0xf2, 0x49, 0xe0, 0x3e,
  0x2e, 0x94, 0xe1, 0x3d, 0xeb, 0x73, 0x1d, 0x3e, 0x87, 0xe6, 0xbb, 0xbd,
  0x87, 0x64, 0x18, 0xbe, 0x37, 0xc6, 0x91, 0xbd, 0x19, 0xd7, 0xbc, 0x3e,
  0x42, 0x5a, 0xd7, 0x3e, 0x78, 0x8b, 0xf1, 0xbc, 0x9a, 0xcf, 0xfe, 0xbc,
  0x84, 0xb7, 0x22, 0xba, 0xe5, 0xae, 0x91, 0xbe, 0x63, 0x57, 0x64, 0x3e,
  0xc4, 0xd7, 0xc9, 0x3e, 0x8d, 0x7f, 0x0b, 0x3e, 0xbb, 0x8a, 0x6a, 0xbe,
  0xd1, 0x42, 0x92, 0xbd, 0x37, 0x7c, 0x84, 0xbe, 0xb0, 0xe5, 0x76, 0x3e,
  0xc3, 0xfb, 0xda, 0x3e, 0xa2, 0xdc, 0x82, 0x3e, 0x49, 0xd2, 0x43, 0xbe,
  0x57, 0xc4, 0xe6, 0x3d, 0x35, 0x6e, 0x05, 0xbd, 0x3f, 0x00, 0x3e, 0x3e,
  0xed, 0x91, 0x9e, 0x3e, 0x36, 0x5e, 0x83, 0x3e, 0x24, 0xa8, 0x5a, 0xbe,
  0x51, 0x86, 0x0d, 0x3e, 0x4b, 0xd9, 0x2a, 0xbe, 0x47, 0x9e, 0x35, 0x3e,
  0xd0, 0xd4, 0xdb, 0x3e, 0x30, 0x5d, 0x97, 0x3e, 0x99, 0xc5, 0xb8, 0xbc,
  0xff, 0xb7, 0x0f, 0x3e, 0x3b, 0xba, 0x2b, 0xbe, 0x17, 0xca, 0xb6, 0x3d,
  0xbb, 0xb0, 0x83, 0x3e, 0xe8, 0x09, 0x26, 0x3e, 0xbe, 0x13, 0x97, 0x3d,
  0x00, 0x5e, 0x0d, 0x3c, 0x90, 0x0f, 0x24, 0x3e, 0xfc, 0x90, 0x55, 0x3e,
  0xd8, 0xfb, 0x3a, 0x3d, 0xd0, 0x3b, 0x3d, 0xbd, 0xe0, 0x70, 0xd1, 0xbb,
  0x4c, 0x25, 0x1c, 0x3e, 0x88, 0x75, 0x5c, 0x3e, 0x98, 0xda, 0x3d, 0xbd,
  0x8e, 0x9d, 0x97, 0xbd, 0xfc, 0x5c, 0x98, 0x3d, 0x20, 0xd0, 0x8c, 0x3b,
  0x40, 0x2b, 0x3e, 0xbe, 0x10, 0xd4, 0x31, 0xbe, 0x60, 0x91, 0xf6, 0x3c,
  0x94, 0x09, 0x4c, 0xbe, 0x1d, 0xc9, 0x30, 0xbe, 0x3e, 0x25, 0x3b, 0x3e,
  0xb0, 0x90, 0x06, 0x3e, 0x41, 0x86, 0x56, 0xbe, 0x44, 0x35, 0x4b, 0x3e,
  0xd0, 0x09, 0x7f, 0x3c, 0x14, 0xc9, 0x28, 0xbd, 0xf4, 0xaa, 0xf6, 0x3d,
  0xba, 0x30, 0x50, 0xbe, 0x00, 0x94, 0x13, 0xbb, 0xd4, 0x56, 0xb3, 0xbd,
  0xe0, 0xec, 0xc6, 0x3d, 0x18, 0xce, 0x17, 0xbe, 0x00, 0xf0, 0xbd, 0xbd,
  0x80, 0xc4, 0xbe, 0xbc, 0x98, 0x10, 0x4c, 0x3e, 0x58, 0x98, 0x9f, 0x3c,
  0x74, 0xda, 0x1e, 0x3e, 0xbc, 0x85, 0xb3, 0x3d, 0xc2, 0x40, 0x42, 0x3e,
  0x99, 0x8c, 0x27, 0xbe, 0x8a, 0xa5, 0x11, 0xbe, 0xc1, 0x2c, 0xef, 0xbd,
  0x60, 0x94, 0xcc, 0xbd, 0x5e, 0xe4, 0xb1, 0xbd, 0x48, 0xa6, 0x4a, 0xbe,
  0xe4, 0x97, 0x38, 0x3e, 0x99, 0x19, 0x15, 0xbe, 0x28, 0xb9, 0xa2, 0xbc,
  0x64, 0x7e, 0xfd, 0x3d, 0x00, 0x66, 0xba, 0x3d, 0x80, 0x05, 0x3f, 0x3e,
  0x70, 0x05, 0x11, 0x3c, 0x90, 0x7e, 0x61, 0x3d, 0x40, 0x4b, 0x27, 0xbd,
  0x64, 0x72, 0x41, 0x3e, 0x10, 0xcb, 0x8e, 0x3d, 0x6e, 0x61, 0x2a, 0x3e,
  0xa0, 0x17, 0x76, 0x3c, 0xa5, 0x1e, 0x5d, 0xbe, 0xe8, 0xa6, 0xfb, 0x3d,
  0xad, 0x33, 0xd6, 0xbd, 0x20, 0xbf, 0x3a, 0x3d, 0x26, 0x5e, 0x40, 0x3e,
  0x8c, 0xe7, 0x8d, 0x3d, 0xb3, 0x71, 0x55, 0xbe, 0x52, 0x01, 0x07, 0xbe,
  0xc4, 0x60, 0x3e, 0xbe, 0xdc, 0xc7, 0xbf, 0xbd, 0xde, 0x92, 0x45, 0xbe,
  0x80, 0x1c, 0x7c, 0x3d, 0x88, 0x20, 0x5d, 0x3d, 0xa2, 0x79, 0xbe, 0xbd,
  0xa2, 0x49, 0x80, 0xbd, 0x40, 0x27, 0x41, 0x3c, 0xe9, 0x98, 0x55, 0xbe,
  0x00, 0x97, 0x18, 0xbe, 0x90, 0xcc, 0x48, 0x3d, 0x5e, 0x0f, 0x1c, 0xbe,
  0xc5, 0x12, 0x32, 0xbe, 0x8e, 0x5d, 0x9b, 0xbd, 0x22, 0x8a, 0x53, 0xbe,
  0x22, 0xdd, 0x0f, 0x3e, 0x0a, 0xac, 0x20, 0xbe, 0xe4, 0xd5, 0x28, 0x3e,
  0x0d, 0x53, 0xd3, 0xbd, 0xf6, 0x38, 0x0b, 0x3e, 0x94, 0x48, 0xd7, 0x3d,
  0x20, 0x32, 0x7d, 0x3c, 0x6e, 0x18, 0xa5, 0xbd, 0x30, 0xb4, 0x8e, 0xbd,
  0x08, 0x10, 0x25, 0xbd, 0x08, 0x79, 0x45, 0x3d, 0xdc, 0x47, 0x00, 0xbe,
  0x63, 0xcd, 0x0f, 0xbe, 0xb7, 0x66, 0x10, 0x3f, 0x5b, 0x92, 0x9f, 0x3d,
  0x9a, 0x29, 0xcc, 0xbe, 0xe9, 0x6e, 0x8b, 0x3e, 0x64, 0x7b, 0xf3, 0x3d,
  0x64, 0x5a, 0x8d, 0xbe, 0xc2, 0xb3, 0xf6, 0x3e, 0xf1, 0xc1, 0xa9, 0x3d,
  0x9b, 0x50, 0x91, 0xbe, 0xdb, 0xb8, 0xcb, 0x3e, 0x4a, 0x50, 0xeb, 0x3b,
  0x7e, 0x9a, 0x5f, 0xbe, 0x40, 0x56, 0x92, 0x3e, 0xc4, 0xb0, 0x22, 0x3e,
  0x21, 0x7d, 0xe3, 0xbe, 0xf0, 0xbc, 0x89, 0x3d, 0x59, 0xbb, 0xca, 0xbc,
  0x0f, 0xb0, 0x59, 0xbe, 0xac, 0x42, 0x28, 0x3e, 0x04, 0x88, 0x12, 0xbe,
  0xcd, 0x4a, 0xb5, 0xbe, 0x7f, 0x42, 0x43, 0x3e, 0xe9, 0xa1, 0x52, 0xbe,
  0xb4, 0xa9, 0x50, 0xbd, 0xaa, 0xa9, 0x8c, 0x3e, 0xe8, 0xf3, 0x89, 0xbd,
  0xa5, 0x96, 0x70, 0xbe, 0xfc, 0xe6, 0xeb, 0x3e, 0x9e, 0xb2, 0x91, 0xbe,
  0x0d, 0xd9, 0xfd, 0x3d, 0xc7, 0x1b, 0x6e, 0x3e, 0xd6, 0x8d, 0x2b, 0x3e,
  0x9d, 0xe0, 0x6a, 0xbd, 0xef, 0xf1, 0xea, 0x3e, 0x2b, 0x2e, 0xcb, 0x3d,
  0x18, 0x23, 0xa9, 0xbd, 0x7c, 0xca, 0x53, 0xbd, 0xc8, 0xdd, 0x09, 0xbc,
  0x08, 0x36, 0xb0, 0xbe, 0xb1, 0x05, 0xbb, 0x3e, 0x24, 0x50, 0x05, 0x3e,
  0x4c, 0x56, 0x36, 0x3e, 0xae, 0x9e, 0x93, 0x3d, 0x9b, 0x87, 0x50, 0x3d,
  0xe2, 0x59, 0x1c, 0xbe, 0xb4, 0x11, 0x19, 0x3f, 0xdd, 0xa0, 0x9f, 0xbc,
  0x68, 0xb2, 0xea, 0x3d, 0x0c, 0x6b, 0x82, 0x3d, 0xe4, 0x04, 0x20, 0x3c,
  0xd2, 0x15, 0x30, 0xbe, 0x59, 0xf3, 0x11, 0x3e, 0x46, 0xbf, 0xb8, 0x3b,
  0x77, 0x02, 0x71, 0xbd, 0x78, 0x74, 0x74, 0x3c, 0x6b, 0x1a, 0xf1, 0xbd,
  0x9d, 0x71, 0x54, 0x3e, 0x89, 0xa4, 0xf8, 0x3e, 0x71, 0x23, 0x81, 0xbd,
  0xae, 0xfc, 0xce, 0x3d, 0xfa, 0x70, 0x0a, 0xbe, 0xc3, 0xa5, 0x67, 0xbe,
  0x67, 0x76, 0xf0, 0xbb, 0x89, 0xfd, 0x00, 0x3e, 0x17, 0x2d, 0x10, 0xbe,
  0xa5, 0xdb, 0xdf, 0x3d, 0xd9, 0xe0, 0x47, 0x3e, 0xf6, 0x18, 0x6a, 0xbe,
  0xe4, 0xb8, 0xec, 0x3d, 0x61, 0xe0, 0x5d, 0x3e, 0x65, 0xc6, 0xdb, 0x3d,
  0x6d, 0xdc, 0x22, 0x3e, 0x5a, 0xa7, 0x75, 0x3e, 0xcc, 0x7a, 0x3c, 0xbe,
  0xe8, 0x89, 0x1a, 0x3e, 0x40, 0xb4, 0xb0, 0x3e, 0xc3, 0x62, 0xb4, 0x3d,
  0x25, 0xd3, 0x5f, 0x3e, 0x83, 0x62, 0xda, 0x3d, 0x2b, 0xc4, 0x81, 0xbe,
  0x5e, 0x38, 0x9b, 0x3d, 0xaf, 0x7c, 0x96, 0x3e, 0x66, 0x09, 0x22, 0x3e,
  0x39, 0x2d, 0xe6, 0x3c, 0x51, 0x83, 0xd2, 0x3e, 0xb6, 0x23, 0xdf, 0x3d,
  0xe9, 0x2f, 0x89, 0x3d, 0xae, 0x58, 0x66, 0x3e, 0x4e, 0x36, 0x2e, 0x3e,
  0xf5, 0x56, 0x40, 0xbd, 0x67, 0x43, 0x8e, 0xbd, 0xd0, 0x58, 0xb1, 0x3d,
  0xd3, 0x10, 0x7c, 0x3d, 0xb3, 0xda, 0x93, 0x3e, 0x0f, 0xf7, 0x85, 0x3d,
  0x81, 0x3b, 0x49, 0x3e, 0xcc, 0xad, 0x25, 0x3c, 0xa3, 0x4c, 0xad, 0x3d,
  0x98, 0x21, 0x95, 0xbe, 0x27, 0xce, 0xac, 0x3e, 0x4f, 0xcc, 0x47, 0x3d,
  0xbb, 0xf7, 0x69, 0x3e, 0x2d, 0x00, 0x42, 0xbe, 0x9c, 0x9b, 0x96, 0x3e,
  0x0a, 0x4a, 0xad, 0xbe, 0x84, 0x9b, 0x3c, 0x3e, 0x37, 0x30, 0xd5, 0xbd,
  0x75, 0x2d, 0x0e, 0xbd, 0x27, 0x9a, 0x46, 0xbe, 0x9f, 0x1f, 0xc1, 0xbc,
  0x41, 0x45, 0x01, 0xbc, 0x8a, 0xc3, 0xc4, 0x3d, 0x8a, 0x34, 0x45, 0xbd,
  0x6c, 0x3a, 0x74, 0xbd, 0x8c, 0x0a, 0x66, 0xbe, 0xb1, 0xa5, 0xfa, 0x3d,
  0xc2, 0x74, 0x61, 0xbe, 0xf3, 0xd3, 0x24, 0x3e, 0xeb, 0x2d, 0x59, 0xbe,
  0x7e, 0xe7, 0x4e, 0xbe, 0x14, 0x05, 0xb3, 0xbe, 0x47, 0x6b, 0xd3, 0x3d,
  0x21, 0xfd, 0x8e, 0xbe, 0x83, 0xd7, 0x93, 0x3e, 0x33, 0xe4, 0xce, 0x3c,
  0x7c, 0x55, 0x6b, 0xbe, 0x74, 0x42, 0x63, 0xbe, 0x22, 0x91, 0x44, 0xbd,
  0x8f, 0xfe, 0x79, 0x3d, 0xfd, 0x52, 0x8b, 0x3e, 0x4d, 0xdf, 0x5a, 0x3c,
  0x85, 0x4d, 0x22, 0x3d, 0xbe, 0x02, 0x40, 0xbe, 0xd5, 0x83, 0x85, 0x3e,
  0x5f, 0xc2, 0xa3, 0xbd, 0x2a, 0xcf, 0x82, 0x3e, 0xf1, 0xf4, 0x8e, 0xbd,
  0xa7, 0xfc, 0x2a, 0x3e, 0x2d, 0xf3, 0xdb, 0xbe, 0x02, 0x74, 0x4e, 0xbd,
  0x14, 0xa5, 0xa6, 0xbd, 0x72, 0xbd, 0x59, 0x3e, 0xee, 0x6d, 0x5b, 0x3d,
  0x50, 0x28, 0x30, 0x3d, 0xed, 0x6a, 0xf4, 0xbd, 0x44, 0x7d, 0xda, 0x3d,
  0xa8, 0x5f, 0xb6, 0x3e, 0x46, 0x09, 0xe0, 0x3d, 0xc4, 0x1c, 0x5c, 0xbd,
  0x42, 0x04, 0x08, 0x3d, 0x44, 0x8d, 0x77, 0xbd, 0x63, 0x33, 0xaa, 0xbc,
  0xaf, 0xd3, 0x0c, 0xbd, 0x4a, 0x93, 0x77, 0x3e, 0x66, 0x6a, 0x00, 0xbe,
  0x4d, 0x80, 0xb7, 0xbd, 0x9b, 0x50, 0x52, 0xbe, 0x1b, 0xb1, 0x38, 0xbe,
  0x50, 0xd8, 0x6d, 0x3e, 0x6f, 0x3d, 0xaf, 0x3e, 0x71, 0xca, 0x0d, 0x3e,
  0x79, 0xb5, 0x24, 0xbe, 0x67, 0x7a, 0x0b, 0xbe, 0x02, 0xf5, 0x5d, 0xbe,
  0xb5, 0x2b, 0x01, 0x3e, 0xc3, 0x84, 0x98, 0x3c, 0xaf, 0xbf, 0xff, 0xbd,
  0xc6, 0xc1, 0x1d, 0x3d, 0xb7, 0x3e, 0xa5, 0xbe, 0x8f, 0x42, 0x76, 0xbd,
  0x1e, 0x33, 0x07, 0x3e, 0xc9, 0x7c, 0x19, 0xbd, 0x67, 0xd6, 0x3c, 0x3e,
  0xdd, 0x4d, 0x60, 0x3d, 0x11, 0xfd, 0x82, 0xbe, 0xed, 0xd7, 0xc3, 0x3c,
  0x8a, 0xee, 0x88, 0x3e, 0xc3, 0x47, 0x4d, 0x3e, 0x49, 0x81, 0x56, 0x3e,
  0x10, 0x0e, 0x62, 0x3e, 0xf3, 0xb0, 0x8f, 0xbe, 0x79, 0x1b, 0xb3, 0x3e,
  0x78, 0x09, 0xb4, 0xbd, 0xbd, 0x63, 0x99, 0x3e, 0x05, 0x56, 0x42, 0xbe,
  0xf2, 0x5c, 0x56, 0x3e, 0xe3, 0x62, 0x13, 0x3d, 0x41, 0x95, 0xcf, 0x3d,
  0x07, 0x47, 0x96, 0x3d, 0x9a, 0x8a, 0xce, 0x3e, 0x39, 0xd8, 0x49, 0xbc,
  0xfd, 0xe3, 0x1a, 0x3d, 0x70, 0x21, 0x64, 0xbe, 0x52, 0x03, 0xe9, 0x3d,
  0x1e, 0x87, 0x37, 0xbd, 0xff, 0x36, 0xd7, 0x3e, 0x40, 0x0d, 0x3b, 0xbe,
  0xd2, 0x2c, 0x10, 0x3e, 0x74, 0x46, 0x89, 0xbe, 0xe2, 0x93, 0x90, 0x3e,
  0x8c, 0xe3, 0x7f, 0xbd, 0x8f, 0x68, 0x77, 0x3e, 0x56, 0x8c, 0xc5, 0x3d,
  0x4e, 0x50, 0xc2, 0x3d, 0x23, 0xba, 0x33, 0xbd, 0xa1, 0xb4, 0x40, 0x3e,
  0x38, 0x38, 0x87, 0xbd, 0x8d, 0x0f, 0xe8, 0x3d, 0x11, 0x89, 0x0b, 0x3e,
  0xfc, 0x2f, 0xd3, 0xbc, 0x5b, 0x1d, 0x92, 0xbe, 0x87, 0x49, 0x65, 0xbd,
  0xdf, 0xb1, 0x96, 0xbe, 0x80, 0x01, 0x11, 0x3e, 0x68, 0x52, 0x8c, 0x3c,
  0x5a, 0x92, 0x0d, 0xbe, 0x4f, 0xfa, 0xc8, 0xbe, 0x46, 0xfb, 0xb2, 0x3e,
  0xcf, 0xbc, 0x79, 0xbe, 0xe1, 0x9d, 0x8c, 0x3e, 0xaa, 0x81, 0x8e, 0x3d,
  0x6e, 0xfe, 0x8e, 0x3d, 0x3f, 0x79, 0x45, 0xbd, 0x5a, 0xee, 0xd8, 0xbc,
  0x8a, 0x64, 0x2f, 0x3d, 0x45, 0xce, 0x66, 0x3e, 0x69, 0xb0, 0x77, 0x3e,
  0x0e, 0xe7, 0x5a, 0xbe, 0x02, 0xd0, 0xb4, 0xbd, 0x13, 0x55, 0x74, 0xbd,
  0x62, 0x36, 0xd8, 0xbd, 0xd2, 0xaa, 0xa3, 0x3c, 0x36, 0x9d, 0xe8, 0xbd,
  0x70, 0x47, 0x28, 0xbe, 0x56, 0x3e, 0x88, 0xbe, 0x94, 0xae, 0x3d, 0x3d,
  0xa8, 0x34, 0x9b, 0xbd, 0xd1, 0x3f, 0x15, 0x3e, 0xc2, 0xf4, 0x59, 0x3e,
  0xb3, 0x1c, 0x52, 0xbe, 0xea, 0x36, 0x48, 0x3d, 0xe8, 0xb4, 0xbe, 0xbc,
  0x40, 0x49, 0x01, 0x3c, 0x51, 0x97, 0xd9, 0x3d, 0xed, 0x4d, 0x0a, 0x3d,
  0x91, 0x82, 0x27, 0x3e, 0xec, 0xcb, 0xa2, 0xbe, 0x44, 0xa7, 0xb4, 0xbd,
  0x35, 0x70, 0x3a, 0xbe, 0x2d, 0x35, 0xda, 0x3d, 0x33, 0x38, 0x15, 0xbd,
  0xff, 0xc0, 0x03, 0xbe, 0x5e, 0x57, 0x08, 0xbc, 0xdb, 0x4c, 0xd2, 0xbc,
  0xc4, 0x32, 0x34, 0xbc, 0x91, 0x02, 0x79, 0x3e, 0xfc, 0x34, 0xc0, 0xbb,
  0x16, 0xf2, 0x15, 0x3e, 0x4d, 0x72, 0x91, 0xbe, 0x60, 0x49, 0x94, 0xbd,
  0x0a, 0x68, 0xf9, 0x3d, 0xa5, 0x9f, 0x98, 0xba, 0xa8, 0xa1, 0xd5, 0xbd,
  0x87, 0x17, 0x04, 0x3e, 0xfc, 0xd4, 0x88, 0xbe, 0xb9, 0x2f, 0xd8, 0x3c,
  0xc9, 0x69, 0x5a, 0x3d, 0x91, 0x96, 0x0c, 0xbd, 0xcf, 0x24, 0x2e, 0x3e,
  0xc0, 0x5c, 0xf1, 0xbc, 0xf4, 0xdb, 0xd9, 0x3d, 0x71, 0x4f, 0xdf, 0x3d,
  0x51, 0x6b, 0xdc, 0x3d, 0x87, 0x6f, 0x19, 0x3e, 0x61, 0xcf, 0x2a, 0xbe,
  0x6c, 0x8f, 0x52, 0xbe, 0x51, 0xd8, 0x1a, 0xbe, 0xf1, 0x9c, 0x03, 0x3e,
  0xcf, 0x80, 0x38, 0x3e, 0x81, 0x37, 0x1e, 0xbd, 0x9c, 0xed, 0x95, 0x3c,
  0x8d, 0x8a, 0x25, 0x3e, 0x41, 0x16, 0xff, 0x3d, 0x74, 0xa2, 0xc4, 0xbd,
  0x34, 0x91, 0x94, 0xbd, 0x09, 0xca, 0xb5, 0x3e, 0xb2, 0xab, 0xa4, 0x3d,
  0xcb, 0x17, 0x24, 0xbe, 0x12, 0x0a, 0x86, 0x3e, 0x22, 0x72, 0x21, 0xbd,
  0xcd, 0xf1, 0x99, 0x3c, 0x27, 0x56, 0xcd, 0x3e, 0x5e, 0x86, 0x1f, 0xbd,
  0xc0, 0x7f, 0x11, 0xbc, 0xac, 0xa1, 0xd4, 0x3e, 0x0d, 0x95, 0x03, 0xbe,
  0x9f, 0x14, 0x8c, 0xbe, 0x01, 0xc2, 0x42, 0x3e, 0xe2, 0x05, 0xa3, 0x3c,
  0x9b, 0x6e, 0x3f, 0x3d, 0xce, 0xd6, 0x52, 0x3e, 0x13, 0x8f, 0xa9, 0x3d,
  0x24, 0x75, 0xae, 0xbe, 0x19, 0x0a, 0x96, 0x3e, 0x4d, 0x3b, 0xd4, 0x3d,
  0x44, 0x9c, 0x0a, 0x3e, 0x13, 0xb1, 0xf7, 0x3e, 0x75, 0x4d, 0x97, 0xbc,
  0xd5, 0xcd, 0x85, 0xbe, 0x78, 0x19, 0xe6, 0x3e, 0x6c, 0xfe, 0x9a, 0x3d,
  0x43, 0xd0, 0x4f, 0xbc, 0x77, 0xe7, 0x66, 0x3e, 0xe3, 0x0c, 0x88, 0xbd,
  0xaa, 0xa6, 0x96, 0xbe, 0xa5, 0xe2, 0x0b, 0x3f, 0x9e, 0x6b, 0xc0, 0x3e,
  0x11, 0xe7, 0xd2, 0x3c, 0x35, 0x1c, 0xe6, 0x3e, 0x8d, 0x69, 0x31, 0xbe,
  0xa2, 0x00, 0xcc, 0xbd, 0x9c, 0x63, 0xf9, 0x3e, 0x33, 0xed, 0xbb, 0x3e,
  0x7e, 0xf4, 0x3d, 0x3e, 0x41, 0x0c, 0x8e, 0x3e, 0xc4, 0x4a, 0x9a, 0xbe,
  0x68, 0x81, 0xac, 0xbd, 0x9f, 0xfa, 0x90, 0x3e, 0x08, 0x6b, 0x18, 0x3e,
  0x83, 0xf6, 0xcc, 0xbd, 0x03, 0xa5, 0xef, 0x3e, 0xc9, 0x12, 0x96, 0xbe,
  0xca, 0xc8, 0x89, 0xbe, 0xb3, 0x03, 0x04, 0x3e, 0x14, 0x9e, 0xb7, 0x3d,
  0x75, 0xcf, 0xb2, 0x39, 0x38, 0xae, 0x7e, 0x3d, 0xef, 0x7c, 0x01, 0xbe,
  0x66, 0x74, 0x06, 0xbe, 0x46, 0x1d, 0x2c, 0x3e, 0x1e, 0xa0, 0x14, 0x3e,
  0x82, 0x83, 0xeb, 0xbd, 0x93, 0xb9, 0xd5, 0x3e, 0x00, 0x93, 0x68, 0xbe,
  0x59, 0xbb, 0x01, 0x3e, 0xfd, 0x79, 0x67, 0x3e, 0xd7, 0xf1, 0x0f, 0x3c,
  0x19, 0xb9, 0xc2, 0xbc, 0x8f, 0x14, 0x0d, 0x3d, 0x93, 0x15, 0x7c, 0xbd,
  0x1d, 0xc2, 0x40, 0xbe, 0x74, 0x26, 0xc2, 0xbd, 0x27, 0x60, 0xb7, 0x3d,
  0x73, 0x10, 0x85, 0x3d, 0xe1, 0x6b, 0x51, 0x3e, 0x8a, 0x26, 0x83, 0xbe,
  0xe0, 0x26, 0xa3, 0x3d, 0xd6, 0xe8, 0x4e, 0x3e, 0x8b, 0x04, 0x87, 0x3e,
  0x7a, 0x58, 0x7d, 0x3e, 0xa7, 0x90, 0xc0, 0xbd, 0x32, 0x49, 0x6d, 0x3c,
  0x98, 0xd5, 0x94, 0x3b, 0xcb, 0x1d, 0xe1, 0xbd, 0xfc, 0x06, 0x14, 0x3e,
  0x05, 0x9a, 0xf7, 0xbd, 0xe6, 0xc2, 0x41, 0xbe, 0x99, 0xbb, 0xbb, 0xbc,
  0xd3, 0x1e, 0xcc, 0x3d, 0x24, 0x26, 0x43, 0xbe, 0x46, 0x38, 0x6b, 0x3d,
  0x63, 0x5b, 0x45, 0x3e, 0x09, 0xdd, 0x84, 0xbd, 0x4c, 0xc7, 0xe0, 0x3d,
  0x24, 0x88, 0x44, 0x3e, 0x31, 0xc9, 0x58, 0xbe, 0x90, 0x50, 0x2b, 0x3e,
  0x5c, 0x1f, 0x12, 0xbe, 0xa9, 0xf9, 0x64, 0xbc, 0xe3, 0x36, 0xce, 0x3d,
  0x68, 0x3a, 0x1c, 0xbe, 0x0e, 0x7f, 0x34, 0xbd, 0x7e, 0xac, 0xaf, 0x3d,
  0xc8, 0x4f, 0x21, 0xbd, 0x14, 0x5c, 0x64, 0x3d, 0xc5, 0x13, 0x37, 0x3d,
  0xd7, 0x3e, 0x27, 0xbe, 0xe8, 0x02, 0xfe, 0x3a, 0x4c, 0x74, 0x40, 0x3c,
  0x0b, 0x95, 0x42, 0xbe, 0x84, 0xf5, 0x9a, 0xbd, 0xa5, 0xfc, 0x67, 0x3d,
  0xf3, 0xfb, 0x8b, 0xbb, 0x56, 0xf3, 0x5a, 0xbd, 0xa3, 0xc8, 0x1f, 0x3e,
  0x43, 0x91, 0xca, 0x3d, 0x3e, 0x46, 0xa1, 0xbd, 0x11, 0x9b, 0xc5, 0x3b,
  0x9f, 0x05, 0x39, 0x3e, 0x91, 0x89, 0x2d, 0xbe, 0x20, 0x32, 0x26, 0x3e,
  0x09, 0xf6, 0x7a, 0xbd, 0xf1, 0x67, 0x0a, 0x3e, 0x98, 0x12, 0x51, 0xbe,
  0x59, 0xbc, 0x00, 0xbe, 0x53, 0x17, 0x81, 0xbc, 0xdd, 0x56, 0xc1, 0xbd,
  0x85, 0xa7, 0x53, 0xbd, 0x20, 0x5e, 0x4f, 0xbe, 0x8f, 0xfc, 0xfe, 0x3d,
  0x5b, 0x62, 0x2c, 0x3e, 0x51, 0x2a, 0xd4, 0xbc, 0x56, 0x20, 0x7e, 0xbd,
  0x7e, 0xd5, 0x22, 0x3e, 0x23, 0x56, 0xc4, 0x3c, 0xf9, 0xc5, 0x43, 0xbe,
  0x5a, 0x59, 0x5f, 0xbe, 0x55, 0xc1, 0x2c, 0xbe, 0x80, 0x4e, 0xcd, 0xbd,
  0xb7, 0x39, 0xa7, 0xbd, 0xbf, 0x9a, 0x04, 0x3e, 0x0a, 0x65, 0x4b, 0x3e,
  0x99, 0xeb, 0x17, 0xbe, 0xb5, 0xe8, 0xdc, 0x3d, 0xe9, 0x71, 0x82, 0x3d,
  0x45, 0x0b, 0x4b, 0xbe, 0x71, 0x54, 0xe7, 0x3b, 0xd6, 0x70, 0x27, 0x3c,
  0xdd, 0x7a, 0x73, 0x3d, 0x0b, 0x09, 0x11, 0x3e, 0x62, 0x8e, 0x00, 0x3e,
  0xdf, 0xad, 0xec, 0xbd, 0x4f, 0x3f, 0x2f, 0xbd, 0xb3, 0xa7, 0x4f, 0xbe,
  0x12, 0xde, 0xac, 0xbb, 0x08, 0x56, 0x44, 0x3e, 0xb5, 0x5c, 0x83, 0xbd,
  0x57, 0x42, 0x21, 0xbe, 0x2c, 0x1b, 0x50, 0x3e, 0x7e, 0xfe, 0x3e, 0x3e,
  0x04, 0xc8, 0x16, 0xbe, 0xad, 0xf1, 0xce, 0x3d, 0x24, 0x5e, 0x48, 0x3e,
  0xd1, 0x59, 0x2b, 0xbe, 0x05, 0xa6, 0x2b, 0x3e, 0x54, 0xbf, 0x57, 0xbe,
  0x37, 0xf9, 0x23, 0xbe, 0x55, 0xc6, 0x30, 0x3e, 0x23, 0x24, 0xc3, 0x3c,
  0x05, 0x28, 0x19, 0x3e, 0x94, 0xf2, 0xbf, 0x3e, 0xc8, 0x3c, 0x52, 0x3e,
  0x29, 0x54, 0x8d, 0xbd, 0xac, 0x4f, 0x86, 0x3e, 0x66, 0xd9, 0x69, 0xbe,
  0x83, 0x00, 0x8f, 0xbd, 0x55, 0x48, 0x99, 0xbd, 0xad, 0xe9, 0x2d, 0xbe,
  0x1b, 0xf0, 0xa0, 0xbe, 0xf7, 0x05, 0xb5, 0x3e, 0xe9, 0x81, 0xd2, 0x3d,
  0x71, 0xef, 0x05, 0xbe, 0xb1, 0x0a, 0x86, 0xbd, 0x91, 0x8b, 0x13, 0xbe,
  0x41, 0xfc, 0x1d, 0xbe, 0x45, 0x3e, 0xd7, 0x3e, 0x0f, 0x99, 0x07, 0xbe,
  0x8d, 0x4b, 0x95, 0xbd, 0xf7, 0x1f, 0x89, 0x3e, 0xd4, 0x1e, 0x21, 0x3e,
  0xde, 0xdb, 0xd0, 0xbe, 0x14, 0xf6, 0xd3, 0x3e, 0x08, 0x53, 0xa7, 0x3c,
  0x04, 0xfb, 0x8d, 0xbd, 0x63, 0x03, 0x8d, 0x3e, 0xe1, 0x11, 0xa7, 0x3d,
  0xe8, 0x09, 0xf5, 0xbe, 0x81, 0xa8, 0x94, 0x3e, 0x10, 0x79, 0x07, 0x3e,
  0x00, 0x1d, 0x0d, 0x3d, 0xb3, 0xa9, 0x2a, 0x3e, 0x0c, 0xbe, 0x46, 0x3d,
  0x6a, 0x38, 0x84, 0xbe, 0x65, 0xba, 0x77, 0x3e, 0xd8, 0xb6, 0x05, 0x3d,
  0x73, 0xde, 0xfd, 0x3d, 0x06, 0xf3, 0x76, 0x3e, 0x86, 0xc9, 0x7e, 0xbc,
  0xa2, 0x8a, 0xf4, 0xbe, 0xeb, 0x0f, 0xfe, 0x3e, 0xa2, 0xdc, 0x6a, 0x3e,
  0x80, 0xed, 0xef, 0xbd, 0x26, 0xec, 0x47, 0x3d, 0x24, 0x10, 0x1e, 0xbe,
  0x54, 0x3a, 0xef, 0xbe, 0xcf, 0x30, 0x04, 0x3f, 0x6b, 0x70, 0x19, 0x3d,
  0xab, 0x2c, 0x98, 0x3d, 0x43, 0x4c, 0x01, 0x3d, 0x1c, 0x23, 0x95, 0xbe,
  0xeb, 0xd0, 0x25, 0xbe, 0x34, 0x96, 0x14, 0x3f, 0x03, 0x83, 0xf3, 0x3d,
  0x36, 0xe0, 0x24, 0xbe, 0xba, 0x5f, 0xca, 0x3d, 0xc2, 0xa4, 0x92, 0xbe,
  0x17, 0x7f, 0x0d, 0xbe, 0x7f, 0xb1, 0xae, 0x3e, 0xe8, 0x27, 0x4d, 0xbd,
  0x51, 0x6e, 0x1f, 0x3e, 0x0e, 0xff, 0xa5, 0xbc, 0xa1, 0xe1, 0x9c, 0xbe,
  0x76, 0xb2, 0xb3, 0xbe, 0xcd, 0x37, 0xa7, 0x3e, 0xeb, 0xed, 0x89, 0x3d,
  0xbe, 0xc5, 0x91, 0x3c, 0x1a, 0xbb, 0x41, 0x3e, 0xba, 0x16, 0x81, 0xbe,
  0x7a, 0x02, 0x95, 0xbe, 0xc6, 0xff, 0x02, 0xbd, 0x58, 0x55, 0x3f, 0x3e,
  0xf4, 0x06, 0x17, 0x3d, 0x47, 0x86, 0x17, 0x3e, 0xc2, 0x93, 0x16, 0xbf,
  0xcf, 0x0f, 0x35, 0xbe, 0x9d, 0x89, 0x1d, 0x3e, 0x89, 0x53, 0x4f, 0xbd,
  0x87, 0x91, 0xc7, 0x3b, 0x36, 0x57, 0x92, 0xbc, 0xa4, 0xe2, 0xb2, 0xbe,
  0x60, 0x79, 0xb0, 0xbd, 0x8f, 0xf3, 0x11, 0xbe, 0xa2, 0x17, 0xa7, 0x3d,
  0x20, 0xfb, 0x47, 0x3e, 0xed, 0x29, 0x59, 0x3e, 0xdd, 0x6e, 0x6f, 0xbe,
  0x56, 0xcb, 0x98, 0x3e, 0x95, 0x70, 0x51, 0x3e, 0xfb, 0x7b, 0xdd, 0xbc,
  0xff, 0xba, 0xd5, 0xbd, 0xe3, 0x8c, 0xe3, 0xbe, 0x7b, 0x98, 0xd0, 0x3e,
  0xcc, 0x60, 0xcc, 0x3d, 0xa6, 0xb7, 0x1f, 0x3e, 0x12, 0x1d, 0xa1, 0x3d,
  0xeb, 0xbb, 0xa3, 0x3e, 0xe6, 0x5a, 0xcf, 0xbe, 0x7f, 0x1d, 0x03, 0x3d,
  0x10, 0x25, 0x80, 0xbd, 0xbe, 0xdc, 0x48, 0x3e, 0xcc, 0x3e, 0x26, 0x3c,
  0x7b, 0x38, 0xca, 0x3e, 0xc8, 0x29, 0x34, 0xbe, 0x79, 0x16, 0xab, 0x3e,
  0x66, 0x14, 0xca, 0xbd, 0x97, 0xa4, 0xdd, 0x3d, 0xa9, 0x66, 0xf8, 0xbd,
  0xdd, 0xbd, 0x85, 0xbd, 0x6b, 0xf5, 0x9e, 0xbe, 0x80, 0x89, 0x4c, 0x3e,
  0xf6, 0xcf, 0x24, 0x3e, 0x77, 0xe1, 0xf5, 0x3d, 0x60, 0x7f, 0x0d, 0x3e,
  0x99, 0x8d, 0x68, 0x3d, 0x5a, 0x89, 0x86, 0xbd, 0xe7, 0x0f, 0x96, 0x3d,
  0x38, 0x46, 0xcf, 0xbd, 0x21, 0xb7, 0x50, 0x3e, 0xee, 0x87, 0x1a, 0x3d,
  0x4d, 0x65, 0x12, 0x3e, 0xa3, 0xc0, 0x91, 0xbe, 0xa9, 0x41, 0x48, 0x3d,
  0x0f, 0xe4, 0x04, 0x3e, 0x57, 0x72, 0x1f, 0x3e, 0xbe, 0x37, 0x11, 0x3e,
  0x4a, 0xc7, 0xf7, 0x3c, 0x58, 0x4d, 0xcc, 0xbd, 0x2d, 0xf3, 0x0b, 0x3e,
  0x78, 0x94, 0x0b, 0xbd, 0xd2, 0xfa, 0x20, 0x3e, 0xc0, 0x5c, 0x41, 0x3d,
  0x1a, 0xdf, 0xc2, 0xbd, 0x93, 0x83, 0xa8, 0xbe, 0x0d, 0xe4, 0x8c, 0x3e,
  0x8a, 0x9e, 0x17, 0xbd, 0x42, 0x76, 0x41, 0xbe, 0x0e, 0xa8, 0xea, 0xbd,
  0x5f, 0xbb, 0xaa, 0xbc, 0xa7, 0x67, 0x71, 0xbe, 0x15, 0xea, 0x31, 0x3d,
  0x01, 0x83, 0x7f, 0x3e, 0x93, 0xff, 0xfb, 0xbd, 0xa0, 0xdf, 0x57, 0x3e,
  0x77, 0x37, 0xcc, 0x3d, 0x1f, 0x7f, 0xb7, 0xbe, 0xd3, 0x52, 0x96, 0x3e,
  0x65, 0x71, 0x65, 0x3e, 0xc8, 0xf5, 0xc2, 0xbd, 0x4a, 0xbb, 0x93, 0x3d,
  0x2b, 0x5f, 0x3f, 0x3e, 0xbf, 0x7f, 0x80, 0xbe, 0xb9, 0x52, 0x92, 0x3e,
  0xf1, 0x39, 0x80, 0x3d, 0x92, 0x2b, 0xa5, 0x3d, 0x1e, 0x64, 0xdf, 0xbd,
  0xe7, 0xdc, 0x37, 0xbd, 0x93, 0xda, 0xb0, 0xbe, 0xc7, 0x35, 0x9c, 0x3d,
  0x82, 0x61, 0x75, 0x3d, 0xaa, 0xe5, 0x76, 0x3e, 0x07, 0xc6, 0xfb, 0xbc,
  0x16, 0x01, 0xcf, 0x3c, 0x36, 0x74, 0xb1, 0xbe, 0x7b, 0xaa, 0x2f, 0x3e,
  0xb6, 0xf4, 0x1b, 0x3e, 0xac, 0x59, 0x0a, 0xbe, 0x3b, 0xf1, 0x12, 0x3e,
  0x34, 0x02, 0x57, 0xbe, 0xf8, 0xe2, 0xc7, 0xbc, 0x08, 0x34, 0xf6, 0xbd,
  0x4c, 0xad, 0x6b, 0x3e, 0x54, 0xae, 0x03, 0x3e, 0xf6, 0x7e, 0x20, 0xbd,
  0xad, 0x16, 0xaa, 0x3d, 0x0e, 0x05, 0x2c, 0xbe, 0x89, 0xdd, 0x3f, 0xbe,
  0x07, 0x53, 0x01, 0xbe, 0x49, 0x1c, 0x8d, 0xbd, 0x23, 0xef, 0xf2, 0x3d,
  0xbe, 0x96, 0x3f, 0x3e, 0x1f, 0xc9, 0xdb, 0x3e, 0xb1, 0x4e, 0x92, 0xbe,
  0x25, 0x05, 0x21, 0xbd, 0xad, 0x58, 0x0e, 0x3e, 0x37, 0x9f, 0x56, 0xbc,
  0x75, 0x67, 0x82, 0xbe, 0x04, 0x62, 0xc5, 0x3d, 0x17, 0x53, 0xd8, 0x3d,
  0x4b, 0xf3, 0x8f, 0xbe, 0xb1, 0x21, 0x1c, 0xbe, 0x76, 0xa8, 0xc9, 0xbd,
  0xab, 0xd8, 0x8f, 0xbe, 0xae, 0xb9, 0x48, 0xbc, 0x7f, 0x43, 0x0d, 0x3e,
  0x6b, 0x58, 0xdb, 0xbe, 0x43, 0x16, 0x9a, 0xbe, 0x9f, 0xf1, 0xa5, 0xbe,
  0x96, 0x0e, 0x69, 0xbe, 0xf8, 0x71, 0x2d, 0x3e, 0xdb, 0x7b, 0xa8, 0xbc,
  0x36, 0x09, 0x00, 0xbe, 0x46, 0x53, 0xbc, 0xbb, 0xfa, 0x26, 0x36, 0xbe,
  0x42, 0x3a, 0xa6, 0xbd, 0x72, 0x2d, 0xcb, 0x3d, 0xd7, 0xa0, 0x53, 0x3e,
  0x3c, 0x01, 0x06, 0xbe, 0x3f, 0x2e, 0xb3, 0x3d, 0x45, 0xb7, 0x0c, 0xbe,
  0x8a, 0xc9, 0x81, 0xbe, 0xf2, 0x81, 0x7e, 0xbe, 0xf5, 0xc0, 0x8e, 0x3d,
  0xcf, 0x23, 0x06, 0x3e, 0xfe, 0x4d, 0xa4, 0xbd, 0x2a, 0x80, 0xcb, 0xbe,
  0xbb, 0xcc, 0x96, 0xbd, 0xee, 0x2d, 0x3f, 0xbd, 0x3a, 0xe4, 0x86, 0x3e,
  0xdd, 0x99, 0x92, 0x3e, 0x91, 0xaf, 0x21, 0x3e, 0xb0, 0x86, 0x45, 0xbe,
  0x83, 0x65, 0xa7, 0x3d, 0xc2, 0x68, 0x67, 0xbd, 0x74, 0x47, 0xc6, 0xbb,
  0x60, 0x67, 0x39, 0x3e, 0xcf, 0xa9, 0x1c, 0xbe, 0x82, 0x89, 0xb3, 0xbe,
  0x71, 0x8a, 0x62, 0xbe, 0xfd, 0xb4, 0xd7, 0xbe, 0x75, 0x4e, 0xe2, 0x3d,
  0xbb, 0x21, 0x6d, 0x3e, 0xc9, 0x50, 0x36, 0x3e, 0x1d, 0x99, 0xe1, 0xbe,
  0xba, 0x24, 0xcd, 0x3b, 0x5e, 0x7b, 0xa7, 0xbe, 0x94, 0x6d, 0x72, 0x3e,
  0x8c, 0xed, 0x4c, 0x3e, 0xab, 0x4d, 0xb6, 0xbd, 0x76, 0xe5, 0x8c, 0xbe,
  0x96, 0x3d, 0x65, 0x3e, 0xdb, 0x42, 0xc6, 0xbd, 0x89, 0xc8, 0x88, 0x3e,
  0xe7, 0x6d, 0x91, 0x3e, 0x7f, 0x45, 0x64, 0x3e, 0xcd, 0xad, 0xb2, 0xbc,
  0xbc, 0x18, 0xff, 0xbc, 0xd1, 0x41, 0x58, 0xbe, 0x6e, 0xea, 0x97, 0x3e,
  0xd9, 0x39, 0x88, 0x3e, 0x02, 0xee, 0x42, 0x3e, 0x65, 0xe9, 0x67, 0xbe,
  0x8d, 0x48, 0xf0, 0xbd, 0xab, 0x6d, 0x73, 0x3d, 0xe5, 0xdf, 0xa4, 0x3e,
  0xbb, 0x85, 0x5a, 0x3e, 0xc2, 0xa0, 0x52, 0x3e, 0x5d, 0xc1, 0x24, 0x3e,
  0x4a, 0xf4, 0x67, 0x3e, 0x17, 0x81, 0xad, 0x3d, 0xaf, 0xcd, 0x42, 0x3e,
  0xdf, 0x22, 0xc3, 0x3e, 0xc7, 0x02, 0x7f, 0x3e, 0xfe, 0xc1, 0x1a, 0xbe,
  0xc2, 0xbb, 0x2a, 0xbd, 0xff, 0xa8, 0x96, 0xbd, 0xf9, 0x48, 0x10, 0xbd,
  0x9a, 0xfd, 0xcf, 0x3e, 0x88, 0x75, 0x84, 0x3b, 0x3c, 0x1c, 0x17, 0xbd,
  0x8b, 0xe0, 0x90, 0xbd, 0x8c, 0x37, 0xc3, 0x3d, 0x60, 0x48, 0x9f, 0x3d,
  0xe8, 0x18, 0xee, 0xbd, 0xae, 0x7b, 0x9a, 0xbd, 0xf8, 0x7c, 0xe5, 0x3d,
  0x99, 0xfd, 0xc7, 0xbd, 0x14, 0x9d, 0xcb, 0xbd, 0xc2, 0x14, 0x5b, 0xbe,
  0xe8, 0xa5, 0x62, 0xbd, 0x58, 0x63, 0xea, 0xbc, 0xe0, 0xcc, 0x23, 0xbe,
  0x34, 0xc8, 0xc4, 0x3d, 0x10, 0x6c, 0x87, 0xbc, 0x12, 0x7a, 0xcc, 0xbd,
  0x98, 0x8a, 0x18, 0xbe, 0x38, 0xf7, 0xbf, 0xbc, 0xfa, 0xd7, 0xb3, 0xbd,
  0x68, 0x79, 0x1d, 0x3d, 0x7e, 0xb3, 0x3c, 0x3e, 0x5c, 0xa7, 0x2d, 0x3e,
  0x38, 0x7c, 0x28, 0x3e, 0x48, 0xca, 0x06, 0x3e, 0x5a, 0x2a, 0x9c, 0xbd,
  0x58, 0x44, 0xd9, 0x3c, 0xe6, 0x41, 0xd9, 0xbd, 0x94, 0xce, 0xe8, 0xbd,
  0xf0, 0x49, 0xa0, 0x3d, 0x60, 0x2d, 0xc7, 0x3b, 0x00, 0xdc, 0x94, 0xbd,
  0x4e, 0x9f, 0x14, 0x3e, 0x9c, 0xcf, 0x57, 0x3e, 0xac, 0x2b, 0x25, 0x3e,
  0x7c, 0x97, 0xee, 0x3d, 0xbc, 0xb2, 0xb9, 0x3d, 0x00, 0x85, 0x9e, 0x3d,
  0xb0, 0xd6, 0x00, 0xbe, 0x42, 0xbc, 0xb4, 0xbd, 0x00, 0xf2, 0x67, 0x3d,
  0x24, 0x14, 0x27, 0xbd, 0xf2, 0x20, 0x4b, 0x3e, 0x78, 0x4b, 0xb6, 0x3d,
  0x35, 0x58, 0x55, 0xbe, 0x20, 0x04, 0xe1, 0x3d, 0xac, 0x9d, 0xf5, 0x3d,
  0x2e, 0xb3, 0x3d, 0xbe, 0x9c, 0x6c, 0x54, 0xbd, 0x80, 0xc7, 0xab, 0x3a,
  0xfb, 0x82, 0xf8, 0xbd, 0x00, 0x20, 0x7f, 0x3b, 0x62, 0x1a, 0xf2, 0xbd,
  0x58, 0x75, 0x48, 0xbd, 0x00, 0x36, 0x2c, 0xbd, 0x12, 0x86, 0x1d, 0x3e,
  0x38, 0x43, 0xbb, 0x3d, 0xf0, 0xf1, 0x39, 0xbc, 0x06, 0xdc, 0x5f, 0xbe,
  0x92, 0xa3, 0x2a, 0xbe, 0x98, 0x36, 0x38, 0x3e, 0x2c, 0xbd, 0x34, 0xbe,
  0xca, 0x7a, 0x1e, 0xbe, 0x0e, 0xc1, 0x2d, 0xbe, 0xf9, 0x88, 0x4f, 0xbe,
  0x90, 0xb6, 0x91, 0xbc, 0xc8, 0xe9, 0x5f, 0xbd, 0x30, 0xcb, 0x0a, 0x3e,
  0x40, 0xad, 0x95, 0xbb, 0x26, 0x2c, 0x5f, 0xbe, 0x42, 0x01, 0x13, 0xbe,
  0x58, 0xb6, 0x25, 0xbe, 0x60, 0x30, 0xd4, 0x3b, 0x90, 0xfe, 0x31, 0x3c,
  0x02, 0xeb, 0x97, 0xbd, 0x3c, 0x8a, 0x20, 0x3e, 0x88, 0x60, 0x84, 0x3d,
  0x3d, 0x64, 0x5e, 0xbe, 0x14, 0x8c, 0xa2, 0xbd, 0x7d, 0x8f, 0x11, 0xbe,
  0x02, 0x22, 0x37, 0x3e, 0x88, 0xc4, 0xb4, 0x3c, 0xbc, 0x75, 0x0f, 0x3e,
  0x06, 0xe9, 0xb0, 0xbd, 0xa4, 0x88, 0x34, 0x3e, 0x52, 0x88, 0x88, 0xbd,
  0xe2, 0x0f, 0x05, 0xbe, 0xc8, 0xa9, 0x9a, 0x3d, 0xe4, 0x9d, 0x4f, 0xbe,
  0x8f, 0x67, 0xd1, 0xbd, 0x0b, 0x39, 0x24, 0xbe, 0xa8, 0xc2, 0x42, 0xbe,
  0x00, 0xf2, 0xca, 0x39, 0x55, 0x56, 0x39, 0x3e, 0x2d, 0x9c, 0xce, 0x3e,
  0x2b, 0xdd, 0xcf, 0xbc, 0x6a, 0x83, 0x30, 0x3e, 0xf7, 0xec, 0x0e, 0x3d,
  0x48, 0x9d, 0xd0, 0x3c, 0x9d, 0xbd, 0xa6, 0x3c, 0x85, 0x70, 0xb7, 0x3e,
  0x4d, 0xa1, 0x66, 0xbe, 0x52, 0x04, 0xa7, 0x3e, 0x77, 0x0f, 0x98, 0xbd,
  0xb0, 0x39, 0x12, 0xbe, 0x33, 0xa5, 0xd2, 0xbd, 0xe5, 0x95, 0xfb, 0x3d,
  0xb0, 0x39, 0xb1, 0x3c, 0x55, 0x38, 0x06, 0x3e, 0xd9, 0x0d, 0x68, 0xbd,
  0xa3, 0xd7, 0x10, 0xbe, 0x08, 0x7d, 0xf8, 0x3d, 0x0f, 0x1e, 0xa0, 0x3e,
  0xbe, 0x4a, 0x44, 0xbd, 0x77, 0x93, 0xa0, 0x3e, 0xe9, 0xab, 0x4b, 0xbe,
  0x25, 0xa6, 0x4a, 0xbe, 0x36, 0x38, 0xa6, 0xbe, 0xd8, 0x3a, 0xae, 0x3e,
  0x09, 0x0b, 0xba, 0xbd, 0x84, 0x3d, 0x1a, 0x3e, 0x3b, 0x2b, 0x6e, 0xbe,
  0x4c, 0x1c, 0x50, 0x3d, 0xbf, 0xc5, 0xe2, 0xbe, 0x98, 0xe9, 0x1c, 0x3e,
  0x8a, 0xfd, 0xb6, 0x3d, 0x31, 0xaa, 0xa8, 0xbd, 0x38, 0xc5, 0x0f, 0xbe,
  0x7f, 0x53, 0x54, 0xbe, 0x04, 0x0a, 0xd2, 0xbe, 0x00, 0x07, 0x7d, 0x3d,
  0x5c, 0x46, 0x0b, 0x3c, 0xdd, 0x12, 0x9c, 0x3d, 0x7b, 0x7d, 0x76, 0xbe,
  0xa8, 0x7d, 0x84, 0xbd, 0x23, 0xd5, 0xd7, 0xbe, 0x8b, 0x5c, 0xd7, 0x3e,
  0x66, 0x61, 0x53, 0x3e, 0xe8, 0x2d, 0x05, 0xbe, 0x1c, 0x41, 0x9a, 0x3c,
  0x26, 0x41, 0xb3, 0x3d, 0x2b, 0x81, 0x57, 0xbe, 0x99, 0x34, 0x71, 0x3e,
  0xd0, 0x31, 0x15, 0x3e, 0xa4, 0x8a, 0xc7, 0x3d, 0x70, 0xa1, 0x9f, 0xbe,
  0xa5, 0xa4, 0x2c, 0x3e, 0x24, 0x1f, 0xf9, 0xbe, 0xaf, 0x86, 0x27, 0x3d,
  0xf3, 0x89, 0x84, 0x3e, 0x66, 0xe8, 0x43, 0xbd, 0x17, 0xd2, 0x52, 0x3d,
  0x44, 0x8b, 0x39, 0xbe, 0x41, 0x77, 0xcb, 0xbe, 0x06, 0xc4, 0xbc, 0x3e,
  0x22, 0x37, 0xdd, 0x3e, 0xdd, 0x39, 0x35, 0x3e, 0xdc, 0x7c, 0x3a, 0xbe,
  0x47, 0x3b, 0xe0, 0x3d, 0xdf, 0xa8, 0xca, 0xbe, 0xf2, 0x41, 0xf3, 0x3d,
  0x68, 0x79, 0xd8, 0x3e, 0xd9, 0xaa, 0x07, 0xbd, 0xa4, 0xf2, 0x9c, 0x3d,
  0xb0, 0xdb, 0x0f, 0x3d, 0xe0, 0xae, 0x31, 0xbe, 0x7d, 0x9b, 0xe6, 0xbd,
  0x06, 0xd1, 0x19, 0x3e, 0x68, 0x46, 0xc1, 0x3e, 0xaf, 0x93, 0xa3, 0x3c,
  0xe7, 0x3e, 0x04, 0x3e, 0x82, 0x03, 0xbf, 0xbe, 0x49, 0xc6, 0x08, 0x3b,
  0x7c, 0xaa, 0xf7, 0x3e, 0xc0, 0x9e, 0xbb, 0x3e, 0xf2, 0xc6, 0x86, 0x3d,
  0xe0, 0xb1, 0x9f, 0x3d, 0x74, 0x5d, 0x7e, 0xbd, 0xc9, 0x1c, 0x79, 0x3d,
  0xd2, 0xed, 0xcc, 0x3e, 0x76, 0x44, 0x13, 0x3e, 0xdc, 0x25, 0xf4, 0xbd,
  0x70, 0x66, 0x33, 0x3e, 0x3b, 0x52, 0x8a, 0xbe, 0xf2, 0x27, 0x97, 0x3e,
  0xa9, 0xe4, 0x05, 0x3e, 0xd7, 0xf4, 0x2d, 0x3e, 0x1b, 0x5e, 0x21, 0x3e,
  0x17, 0x12, 0xd0, 0x3d, 0xfd, 0xb4, 0x04, 0xbe, 0x80, 0xa6, 0x9f, 0x3e,
  0x78, 0x63, 0x6b, 0xbe, 0x7d, 0x3d, 0xd3, 0x3d, 0xa1, 0xa6, 0x18, 0xbd,
  0xaa, 0xc6, 0xf8, 0xbc, 0x38, 0x41, 0x58, 0x3d, 0xc2, 0x1a, 0xfa, 0x3c,
  0x5b, 0xad, 0x18, 0xbd, 0x30, 0x97, 0x82, 0x3e, 0x6e, 0x15, 0x16, 0x3e,
  0x94, 0xfb, 0x46, 0x3e, 0x60, 0x21, 0x06, 0xbe, 0xe5, 0x52, 0x7b, 0x3e,
  0xb7, 0x9f, 0x1f, 0xbc, 0xc9, 0xf3, 0xa9, 0xbd, 0xf9, 0x35, 0x31, 0xbe,
  0x9b, 0xb0, 0x43, 0x3e, 0x58, 0xcb, 0x0f, 0xbd, 0x9f, 0x24, 0x3b, 0xbd,
  0x29, 0xbe, 0x6e, 0xbe, 0x43, 0x51, 0x27, 0xbd, 0xdd, 0xc1, 0xe6, 0x3d,
  0xad, 0xeb, 0x71, 0xbd, 0xda, 0x76, 0xca, 0xbe, 0xa5, 0x01, 0x92, 0x3e,
  0xef, 0x35, 0x0d, 0x3d, 0x0b, 0x13, 0xc6, 0x3d, 0xb7, 0xd1, 0x52, 0xbe,
  0x96, 0xb3, 0xfd, 0x3d, 0x05, 0xdc, 0x02, 0xbf, 0x57, 0xd7, 0x6e, 0x3d,
  0xbb, 0xb5, 0x52, 0x3e, 0x9a, 0xc5, 0xc8, 0x3c, 0xb9, 0xdf, 0x57, 0x3d,
  0x1f, 0xe8, 0x8a, 0xbe, 0xc5, 0x79, 0xed, 0xbe, 0x92, 0x4d, 0xa8, 0x3e,
  0x7a, 0xdc, 0x74, 0x3e, 0x55, 0x31, 0xd7, 0x3d, 0xcd, 0x0f, 0x7d, 0xbe,
  0x50, 0x2e, 0xb5, 0x3c, 0x4a, 0x3a, 0x13, 0xbe, 0xf7, 0x18, 0xa2, 0x3e,
  0x3d, 0x9d, 0x43, 0x3e, 0x35, 0xdd, 0x01, 0xbe, 0x15, 0x9b, 0x89, 0x3d,
  0xf7, 0x29, 0x2f, 0xbd, 0x1f, 0x60, 0xd6, 0xbe, 0x04, 0x69, 0x13, 0x3e,
  0x11, 0x81, 0xd0, 0x3e, 0xd6, 0x55, 0x89, 0xbd, 0xc5, 0x99, 0xb6, 0x3d,
  0x06, 0xde, 0x25, 0x3e, 0x03, 0xe7, 0xab, 0xbe, 0x92, 0xd2, 0x2f, 0x3e,
  0x01, 0xc5, 0x9a, 0x3e, 0x5e, 0x47, 0x58, 0xbd, 0x8f, 0xfe, 0x55, 0xbe,
  0xdc, 0x1e, 0xb5, 0x3d, 0xf5, 0xac, 0x86, 0xbe, 0x39, 0x52, 0x00, 0xbe,
  0x99, 0x7d, 0x2c, 0x3e, 0x80, 0xe5, 0x6a, 0x3e, 0x45, 0x04, 0x42, 0xbe,
  0x54, 0x07, 0xf5, 0x3d, 0x1c, 0x7c, 0x99, 0xbe, 0x08, 0x30, 0xb9, 0x3d,
  0xf8, 0x71, 0xd7, 0x3d, 0x7e, 0x13, 0x06, 0xbe, 0x8d, 0xc3, 0x20, 0x3e,
  0xfe, 0xd9, 0x2d, 0x3e, 0xb4, 0x95, 0xb1, 0xbe, 0xc9, 0x26, 0x9c, 0xbc,
  0x68, 0x2a, 0x12, 0xbd, 0x1d, 0xeb, 0xa2, 0x3c, 0xc4, 0x37, 0x4e, 0x3e,
  0x89, 0xb8, 0x1d, 0x3e, 0x51, 0xd1, 0x7f, 0xbe, 0xfb, 0x84, 0xad, 0xbc,
  0x8c, 0xfe, 0x77, 0x3e, 0xcd, 0xe4, 0x39, 0x3d, 0x6e, 0xb9, 0x3e, 0xbe,
  0xad, 0x09, 0xc5, 0x3d, 0x89, 0x12, 0x8c, 0xbe, 0x47, 0x7c, 0xcf, 0xbc,
  0x1c, 0x18, 0x2b, 0x3e, 0x5a, 0xfd, 0x9e, 0x3d, 0x53, 0xa9, 0xf9, 0xbc,
  0x3c, 0x63, 0xb4, 0x3e, 0xef, 0xc2, 0x84, 0xbe, 0x57, 0x25, 0xc1, 0x3e,
  0x0f, 0xaa, 0x3f, 0x3e, 0xa5, 0xf0, 0xb4, 0x3e, 0xe7, 0x46, 0xa6, 0x3d,
  0xae, 0x48, 0x9e, 0x3e, 0x53, 0xf3, 0x29, 0xbe, 0x5d, 0x2a, 0x9d, 0x3d,
  0x08, 0xc7, 0xec, 0xbd, 0xcb, 0xe6, 0x51, 0x3e, 0xfe, 0x5f, 0x02, 0xbe,
  0xf9, 0x1d, 0x83, 0x3c, 0x4e, 0x9d, 0x3f, 0xbe, 0x7e, 0xcb, 0x83, 0xbd,
  0xab, 0xcf, 0x73, 0xbe, 0x01, 0xb7, 0x3a, 0x3e, 0x8f, 0x13, 0xb4, 0xbd,
  0x4c, 0xeb, 0x91, 0xbd, 0x93, 0xad, 0x5e, 0xbd, 0x0f, 0xc8, 0x57, 0x3e,
  0x3c, 0x77, 0xe2, 0xbc, 0xfc, 0x60, 0xd3, 0x3e, 0x36, 0xb7, 0x3e, 0x3d,
  0x90, 0x15, 0xaa, 0x3c, 0x5f, 0x46, 0x9a, 0xbc, 0x89, 0x4f, 0x3a, 0xbd,
  0x9f, 0x3b, 0x68, 0xbe, 0xea, 0xcb, 0x92, 0x3e, 0x52, 0x13, 0x6c, 0x3e,
  0xf5, 0xde, 0xe6, 0x3d, 0xb5, 0xef, 0x51, 0xbc, 0xe9, 0xe9, 0x9b, 0x3d,
  0xec, 0x07, 0xa1, 0xbe, 0x91, 0x8a, 0x56, 0xbc, 0x40, 0xc8, 0x22, 0x3e,
  0x19, 0xd3, 0x5a, 0x3e, 0xb5, 0x9e, 0x09, 0xbd, 0xe2, 0x3c, 0x62, 0x3e,
  0xf1, 0x54, 0xc6, 0xbd, 0x95, 0xfe, 0xe6, 0x3d, 0x33, 0xa4, 0x6d, 0x3d,
  0x23, 0x8f, 0x24, 0xbc, 0xa7, 0x87, 0x42, 0xbe, 0xd5, 0xff, 0xcb, 0x3d,
  0xf8, 0x30, 0x0c, 0x3c, 0xee, 0xbf, 0xa1, 0xbd, 0x39, 0x91, 0x05, 0xbb,
  0xb2, 0x92, 0xa7, 0x3d, 0xf6, 0x87, 0x31, 0x3c, 0x31, 0xfb, 0xa2, 0x3c,
  0xb0, 0x37, 0x31, 0xbd, 0x5d, 0xd8, 0x97, 0x3e, 0xcb, 0xd8, 0xc5, 0xbd,
  0x65, 0xf7, 0xbb, 0x3d, 0x48, 0xb2, 0x2d, 0xbe, 0x29, 0x96, 0x81, 0x3d,
  0x49, 0x7d, 0x07, 0xbb, 0x00, 0xac, 0x92, 0x3d, 0x86, 0x78, 0x4e, 0x3e,
  0x5d, 0x28, 0xe3, 0xbd, 0x94, 0x30, 0x25, 0xbd, 0x04, 0x5a, 0x72, 0xbe,
  0xcc, 0xdd, 0x42, 0xbd, 0xbf, 0x34, 0x67, 0xbd, 0x2a, 0xa0, 0x0f, 0xbe,
  0x76, 0x7e, 0x3e, 0xbd, 0x3f, 0xc2, 0x1d, 0xbc, 0xa6, 0xf1, 0x54, 0xbe,
  0xa3, 0xc3, 0xa6, 0x3c, 0x44, 0xe1, 0x1c, 0x3d, 0xa2, 0x75, 0xf0, 0x3c,
  0xc3, 0x9c, 0x3f, 0xbe, 0x7f, 0xe4, 0x18, 0x3c, 0x8d, 0x0d, 0x47, 0xbe,
  0x67, 0x35, 0x34, 0x3d, 0x08, 0xb5, 0xb2, 0xbd, 0xfc, 0x11, 0x27, 0x3e,
  0x6c, 0xcf, 0x8d, 0xbd, 0x5e, 0xf1, 0xa0, 0xbe, 0x7b, 0x52, 0x43, 0xbe,
  0x58, 0x2c, 0xa9, 0x3d, 0x55, 0x8d, 0xe9, 0x3d, 0x2d, 0x8c, 0x2e, 0x3e,
  0x1c, 0x07, 0x09, 0xbe, 0xed, 0x3e, 0xd3, 0xbd, 0x77, 0x63, 0x38, 0x3e,
  0x51, 0x9e, 0x56, 0xbd, 0x2f, 0x8e, 0x8c, 0x3e, 0x69, 0x64, 0x53, 0xbd,
  0x62, 0x08, 0x27, 0x3d, 0xaf, 0x31, 0xa7, 0xbc, 0x3c, 0xbe, 0xa1, 0x3e,
  0x0d, 0x5e, 0x0c, 0xbc, 0xc2, 0xeb, 0x90, 0xbc, 0xc6, 0x6d, 0x07, 0x3e,
  0x60, 0x6d, 0x51, 0xbc, 0xa7, 0x6f, 0xac, 0xbe, 0xd5, 0x34, 0x9f, 0x3e,
  0xfe, 0xb4, 0x0f, 0x3e, 0x2c, 0x3e, 0x73, 0x3c, 0xe7, 0x8f, 0x55, 0xbd,
  0x12, 0xb6, 0x02, 0x3e, 0x80, 0xca, 0xe8, 0xbd, 0x55, 0xff, 0x79, 0xbc,
  0x0c, 0xdf, 0xc1, 0x3d, 0x27, 0x16, 0xf2, 0x3d, 0x9e, 0x35, 0xf5, 0x3d,
  0x01, 0x7c, 0x89, 0x3e, 0xb2, 0x74, 0x2a, 0xbe, 0x40, 0xc4, 0xeb, 0xbc,
  0x28, 0x28, 0x3e, 0x3e, 0x65, 0x8c, 0x98, 0x3d, 0x86, 0xe1, 0xf2, 0x3d,
  0x34, 0x30, 0x6a, 0xbd, 0x8d, 0x30, 0x3e, 0xbd, 0xaa, 0x80, 0x11, 0x3e,
  0x92, 0xff, 0x71, 0xbd, 0x71, 0x3d, 0x45, 0x3e, 0xb3, 0xca, 0x26, 0x3e,
  0x17, 0xa1, 0x33, 0x3e, 0x08, 0xe8, 0x38, 0xbe, 0xac, 0x10, 0x20, 0x3e,
  0x24, 0x70, 0x5b, 0xbe, 0x0e, 0x42, 0x8a, 0xbd, 0xb0, 0x35, 0x00, 0xbe,
  0x02, 0x1f, 0x2a, 0x3e, 0xb7, 0xc5, 0x65, 0xbe, 0x33, 0x6f, 0xfe, 0x3d,
  0x7d, 0xcc, 0xe1, 0xbc, 0xa6, 0xc0, 0xa2, 0x3d, 0xab, 0x59, 0xe4, 0x3d,
  0xb1, 0x80, 0x13, 0x3e, 0x79, 0x74, 0x97, 0xbe, 0x72, 0xa9, 0x5f, 0x3e,
  0x2c, 0x4d, 0x2a, 0xbe, 0xb7, 0x7b, 0xcc, 0x3c, 0xe7, 0x48, 0xf7, 0xbd,
  0x18, 0x4b, 0x63, 0xbd, 0x02, 0xcf, 0x3c, 0xbe, 0x50, 0x0e, 0xd3, 0x3c,
  0x73, 0x58, 0x76, 0x3e, 0xf2, 0xb0, 0x33, 0x3e, 0x70, 0x47, 0x39, 0x3d,
  0x89, 0x45, 0x76, 0xbc, 0x29, 0x9e, 0x07, 0xbe, 0x90, 0x98, 0x1c, 0x3e,
  0x7b, 0xe8, 0x5e, 0x3e, 0xee, 0xd5, 0x46, 0xbd, 0xac, 0x72, 0x53, 0xbe,
  0x4f, 0xce, 0x36, 0xbe, 0x2d, 0x37, 0x8f, 0xbe, 0x7d, 0xc3, 0xfc, 0xbd,
  0x0f, 0x40, 0x2d, 0xbe, 0xc4, 0xe0, 0xf4, 0xbd, 0x43, 0xe4, 0x3c, 0xbd,
  0x36, 0x87, 0x19, 0x3e, 0x24, 0xaf, 0xb4, 0xbe, 0xbc, 0x93, 0x2c, 0x3d,
  0xaa, 0xdd, 0xbc, 0x3d, 0xfa, 0xe9, 0xb7, 0xbc, 0x41, 0xf0, 0x23, 0x3e,
  0xf0, 0x2b, 0x2f, 0x3e, 0xa3, 0x6b, 0xa9, 0xbe, 0xe6, 0xf3, 0x2d, 0xbd,
  0x6c, 0xeb, 0x03, 0xbe, 0xb0, 0x98, 0x6b, 0x3e, 0xf4, 0x21, 0xf6, 0xbd,
  0x8f, 0xef, 0x8c, 0x3d, 0x49, 0x21, 0xb1, 0xbe, 0x03, 0x7b, 0x0c, 0xbe,
  0xfe, 0xef, 0xc0, 0x3d, 0xcc, 0xf9, 0xdd, 0x3d, 0x7d, 0x65, 0x27, 0xbd,
  0x4f, 0x99, 0x1d, 0x3e, 0x55, 0x12, 0xc9, 0xbd, 0xd0, 0x3a, 0x8e, 0xbc,
  0x5f, 0x2d, 0x62, 0xbe, 0x3e, 0x1d, 0x39, 0x3e, 0x46, 0x20, 0x36, 0x3e,
  0xc0, 0xda, 0x6e, 0x3d, 0x7c, 0x8e, 0x89, 0x3d, 0x55, 0x33, 0x12, 0xbe,
  0x14, 0x4b, 0x27, 0xbd, 0x75, 0x42, 0x0b, 0xbe, 0x24, 0x76, 0x49, 0xbe,
  0xc6, 0x83, 0x87, 0xbd, 0xcc, 0x24, 0xa7, 0xbd, 0x20, 0xcf, 0x9d, 0x3d,
  0x54, 0xbe, 0xe1, 0x3d, 0x20, 0x2c, 0x23, 0x3d, 0x6b, 0x25, 0x59, 0xbe,
  0x3e, 0xd1, 0x0f, 0x3e, 0xd2, 0x68, 0xa3, 0xbd, 0x68, 0x6c, 0x09, 0xbe,
  0x22, 0xb6, 0x2f, 0x3e, 0x48, 0x6d, 0xc5, 0x3d, 0x58, 0x98, 0xff, 0x3d,
  0xde, 0xdc, 0x31, 0x3e, 0xb0, 0x69, 0xd8, 0xbc, 0x4b, 0xee, 0x19, 0xbe,
  0xb4, 0x6a, 0xe5, 0x3d, 0x89, 0xd9, 0xed, 0xbd, 0xa0, 0x45, 0xd9, 0x3b,
  0x8c, 0x5e, 0x86, 0xbd, 0x58, 0xed, 0x1b, 0x3d, 0x08, 0x3e, 0x9b, 0xbd,
  0x80, 0x5d, 0x25, 0xbe, 0xcc, 0xa4, 0x3e, 0x3e, 0x44, 0xe0, 0xb4, 0xbd,
  0x64, 0x90, 0x73, 0xbd, 0xf0, 0xd0, 0x26, 0xbd, 0x12, 0x49, 0x4a, 0xbe,
  0xb0, 0x31, 0xab, 0xbc, 0x0a, 0xc0, 0x05, 0x3e, 0x38, 0x44, 0x4a, 0xbe,
  0x28, 0x79, 0x22, 0x3e, 0x68, 0x73, 0x56, 0xbe, 0x6e, 0x7f, 0x8c, 0xbd,
  0xa0, 0x4a, 0x52, 0x3d, 0x9d, 0x5d, 0xd4, 0xbd, 0xc0, 0x45, 0xea, 0x3c,
  0x24, 0x98, 0xa6, 0xbd, 0x7e, 0x0a, 0x04, 0x3e, 0xa8, 0x05, 0xea, 0x3d,
  0x94, 0x3d, 0xa6, 0x3d, 0x74, 0x35, 0x91, 0xbd, 0xcc, 0x8a, 0x1f, 0x3e,
  0xd0, 0x37, 0x68, 0xbd, 0xf0, 0x95, 0xd2, 0x3d, 0x48, 0xa1, 0x74, 0x3d,
  0x26, 0xa7, 0x2c, 0xbe, 0xea, 0x41, 0x89, 0xbd, 0xdf, 0xa4, 0x55, 0xbe,
  0x78, 0x38, 0x02, 0x3d, 0xf0, 0xf1, 0x85, 0x3d, 0x4a, 0x14, 0x2e, 0x3e,
  0xc0, 0xe3, 0x1b, 0x3d, 0x60, 0x13, 0xf1, 0x3b, 0xf1, 0x22, 0x54, 0xbe,
  0xf8, 0xd6, 0x48, 0xbe, 0xce, 0x20, 0x39, 0x3e, 0x9e, 0x61, 0x13, 0x3e,
  0x34, 0x4c, 0x5c, 0xbe, 0xca, 0xb7, 0x44, 0xbe, 0x2c, 0x53, 0x56, 0xbd,
  0x07, 0x00, 0x43, 0xbe, 0xb0, 0x71, 0x52, 0x3c, 0xbc, 0x81, 0xd5, 0xbd,
  0x38, 0x6e, 0xc8, 0x3d, 0x16, 0x05, 0x5c, 0x3e, 0x17, 0xc0, 0xcb, 0xbd,
  0x88, 0x95, 0xa5, 0x3d, 0x60, 0x6a, 0x52, 0xbc, 0x48, 0x3e, 0x01, 0x3d,
  0xf8, 0x11, 0x91, 0xbd, 0x44, 0x3f, 0xf9, 0x3d, 0xa2, 0x38, 0x9e, 0xbd,
  0xb0, 0x43, 0x8e, 0x3c, 0x90, 0xa5, 0x1f, 0xbe, 0xb8, 0xe1, 0xcb, 0x3d,
  0xb4, 0x1f, 0xba, 0x3d, 0x17, 0x9d, 0xf6, 0xbd, 0x48, 0x49, 0x1b, 0xbd,
  0xbc, 0xe2, 0xda, 0x3d, 0x2c, 0x48, 0x1b, 0xbd, 0xf8, 0xfd, 0x95, 0xbc,
  0x80, 0xfd, 0x3c, 0x3b, 0x20, 0xde, 0x8b, 0x3d, 0xf4, 0xab, 0xc5, 0x3d,
  0x28, 0x88, 0x6e, 0xbd, 0x36, 0x5f, 0x29, 0xbe, 0x3e, 0xae, 0x34, 0xbe,
  0x78, 0x0d, 0x1c, 0xbe, 0x40, 0xa8, 0x3f, 0xbc, 0x9c, 0xfe, 0x59, 0x3e,
  0x0e, 0x39, 0x2c, 0xbe, 0xcc, 0x12, 0x34, 0xbd, 0x00, 0xf6, 0x71, 0xba,
  0xa8, 0x04, 0xb5, 0x3d, 0xf4, 0xd9, 0xdc, 0x3d, 0xda, 0x04, 0xd5, 0xbd,
  0xec, 0x46, 0xca, 0xbd, 0x68, 0xed, 0x88, 0xbc, 0xec, 0xdf, 0xa8, 0x3d,
  0x20, 0x07, 0xf7, 0xbd, 0xc3, 0x43, 0x5b, 0xbe, 0x6e, 0xf9, 0x42, 0x3e,
  0x1c, 0x89, 0x7c, 0xbd, 0xe0, 0x59, 0x12, 0xbd, 0x80, 0xf9, 0x95, 0x3d,
  0x87, 0xb2, 0x46, 0xbe, 0x9d, 0xe7, 0x4f, 0xbe, 0x84, 0x9c, 0x43, 0xbd,
  0x68, 0x20, 0x9e, 0x3d, 0x6a, 0x58, 0x4b, 0xbe, 0xa0, 0xd6, 0x49, 0x3e,
  0x00, 0x93, 0xb1, 0x3d, 0xc0, 0x0d, 0x9e, 0xbd, 0x88, 0x5e, 0x5f, 0x3d,
  0xff, 0x22, 0x27, 0xbe, 0xa8, 0xf3, 0x2b, 0xbe, 0xda, 0xe0, 0xa2, 0xbd,
  0xd0, 0x8a, 0x3c, 0x3c, 0x2e, 0x5d, 0x15, 0x3e, 0x9f, 0x74, 0x5c, 0xbe,
  0xd7, 0xfa, 0x13, 0xbe, 0xaa, 0x0d, 0x2f, 0xbe, 0xf8, 0x83, 0x1e, 0x3d,
  0x4a, 0x29, 0x1f, 0xbe, 0x1c, 0xef, 0x9a, 0x3d, 0xd0, 0xa5, 0x5d, 0x3e,
  0x4b, 0x1f, 0x48, 0xbe, 0x27, 0x39, 0xe2, 0xbd, 0xa0, 0xf2, 0x85, 0x3d,
  0xc2, 0xf9, 0x62, 0x3e, 0xa8, 0x55, 0xa1, 0x3d, 0x60, 0x6b, 0xfe, 0x3c,
  0x20, 0x6b, 0x0b, 0x3e, 0x1c, 0xf0, 0xd2, 0x3d, 0xc8, 0xb0, 0x4e, 0x3e,
  0x9d, 0xde, 0x3b, 0xbe, 0x0c, 0x49, 0x4e, 0xbe, 0x18, 0x5f, 0xbb, 0x3d,
  0x68, 0xfa, 0x22, 0xbd, 0xe8, 0xfe, 0x41, 0x3e, 0x16, 0xef, 0x51, 0xbe,
  0xb8, 0x99, 0x47, 0xbe, 0x00, 0xf0, 0x61, 0xba, 0x88, 0x09, 0x52, 0x3d,
  0x7a, 0x39, 0x38, 0x3e, 0xe8, 0xc5, 0x13, 0xbd, 0x7c, 0x95, 0xef, 0x3d,
  0xde, 0x96, 0x83, 0xbd, 0x8b, 0x6a, 0x4b, 0xbe, 0x65, 0x74, 0x48, 0xbe,
  0x8c, 0xb4, 0x3a, 0x3e, 0xc0, 0x2c, 0x56, 0x3d, 0xd2, 0x95, 0x32, 0xbe,
  0x64, 0x73, 0x33, 0x3e, 0x42, 0x66, 0x5b, 0xbe, 0xf0, 0x6d, 0xd1, 0xbd,
  0x9c, 0xff, 0xd2, 0x3d, 0x60, 0xac, 0x8a, 0x3b, 0xb1, 0x91, 0xf2, 0xbd,
  0xe0, 0x71, 0x99, 0xbb, 0xe8, 0x3e, 0x46, 0x3e, 0xb8, 0x84, 0xe1, 0xbd,
  0xf0, 0x91, 0xec, 0x3c, 0x90, 0x98, 0x3c, 0xbc, 0x8e, 0x3b, 0x5c, 0xbe,
  0x80, 0xb9, 0x21, 0x3d, 0xfc, 0x4d, 0xe7, 0x3d, 0x0a, 0x86, 0xa5, 0xbd,
  0x34, 0x18, 0x7b, 0xbd, 0x6a, 0xa7, 0x12, 0x3e, 0x1c, 0xa9, 0x06, 0x3e,
  0xa4, 0xf9, 0x17, 0x3e, 0x84, 0x95, 0xd0, 0x3d, 0xe2, 0xf1, 0xf2, 0xbd,
  0xc5, 0xbe, 0x40, 0xbe, 0xe2, 0x00, 0x01, 0x3e, 0xb0, 0xee, 0x0c, 0x3d,
  0xb8, 0x05, 0xcb, 0x3c, 0x52, 0xba, 0xa6, 0xbd, 0xf8, 0xbd, 0x53, 0xbd,
  0xb0, 0x93, 0x0a, 0xbd, 0x18, 0x3a, 0xae, 0xbc, 0xc0, 0x60, 0x27, 0x3b,
  0x70, 0xb7, 0xb7, 0x3d, 0xb4, 0xc2, 0xbe, 0x3d, 0x73, 0x2f, 0x3c, 0xbe,
  0x0d, 0x03, 0x5e, 0xbe, 0x7c, 0x78, 0x85, 0x3d, 0x48, 0xf7, 0x42, 0xbe,
  0x8e, 0xa8, 0x14, 0xbe, 0x74, 0x6a, 0xee, 0x3d, 0xf4, 0xe7, 0x20, 0xbe,
  0x2a, 0xdd, 0x34, 0x3e, 0x32, 0x19, 0x0d, 0x3e, 0xb5, 0xea, 0x24, 0xbe,
  0x42, 0xb9, 0x4c, 0xbe, 0xd8, 0x63, 0x3f, 0xbd, 0x8e, 0x54, 0xb6, 0xbd,
  0x4e, 0x24, 0x21, 0xbe, 0x6c, 0xa9, 0x97, 0x3d, 0xdc, 0x36, 0x0d, 0xbd,
  0x1a, 0xd8, 0xa9, 0xbd, 0xda, 0x82, 0x1e, 0xbe, 0xe0, 0x28, 0x4b, 0xbc,
  0x30, 0x6f, 0x64, 0xbd, 0xe8, 0x83, 0x3a, 0xbd, 0x61, 0x54, 0x2f, 0xbe,
  0x12, 0x92, 0x59, 0x3e, 0xcc, 0x40, 0x85, 0x3d, 0x34, 0x2b, 0xed, 0x3d,
  0xa8, 0xb1, 0x29, 0xbd, 0x8c, 0x23, 0x21, 0xbd, 0x20, 0xd3, 0x56, 0xbe,
  0x44, 0x0c, 0x06, 0x3e, 0x5a, 0x6a, 0x86, 0xbd, 0x24, 0xd6, 0x9c, 0x3d,
  0xd8, 0xa9, 0xc4, 0x3d, 0x22, 0x44, 0x2e, 0x3e, 0xe4, 0x3d, 0x21, 0xbe,
  0x00, 0xbe, 0x94, 0x3a, 0x0a, 0x2e, 0x24, 0x3e, 0xd0, 0x08, 0xf8, 0x3d,
  0xa0, 0x56, 0x24, 0x3c, 0x9e, 0x5f, 0x40, 0xbe, 0xc8, 0x30, 0xac, 0x3d,
  0x34, 0x16, 0x0e, 0x3e, 0x26, 0x2e, 0x11, 0x3e, 0x62, 0x8a, 0x0c, 0x3e,
  0x72, 0x8d, 0x18, 0xbe, 0x35, 0x12, 0x5a, 0xbe, 0x48, 0xe4, 0x55, 0xbd,
  0x8c, 0xfa, 0x07, 0xbe, 0xb8, 0x40, 0xbc, 0x3d, 0x48, 0x4c, 0x24, 0x3e,
  0x60, 0xad, 0x9e, 0xbb, 0x15, 0xfa, 0x5d, 0xbe, 0xcc, 0x83, 0x23, 0xbd,
  0x9c, 0x1a, 0x78, 0xbd, 0x28, 0x83, 0x1d, 0xbe, 0x44, 0xec, 0xfb, 0x3d,
  0xd0, 0xae, 0xf1, 0x3c, 0x4e, 0xc7, 0x89, 0xbd, 0x25, 0xa2, 0x60, 0xbe,
  0xd8, 0x35, 0x05, 0xbd, 0x0c, 0x95, 0x45, 0xbe, 0x9e, 0xdb, 0x3b, 0x3e,
  0x3c, 0x98, 0x2c, 0x3e, 0x28, 0x1a, 0x31, 0x3e, 0x68, 0xa5, 0x8f, 0x3d,
  0xd2, 0x47, 0x03, 0xbe, 0xfa, 0xe7, 0x24, 0x3e, 0x00, 0x0f, 0x13, 0x3a,
  0xfa, 0x4d, 0xe4, 0xbd, 0xb0, 0xd1, 0x3c, 0x3d, 0xdc, 0x79, 0x5b, 0xbe,
  0x1c, 0x61, 0xb4, 0x3d, 0x8d, 0x58, 0x5a, 0xbe, 0x8c, 0xdc, 0x8d, 0xbd,
  0x3d, 0xb1, 0x11, 0xbe, 0x91, 0x27, 0xb9, 0xbe, 0x03, 0xd5, 0x0b, 0xbe,
  0x4d, 0x3e, 0xc6, 0x3e, 0x60, 0x2a, 0xa7, 0xbe, 0x10, 0x99, 0x77, 0x3e,
  0x76, 0x49, 0x88, 0x3e, 0x93, 0x15, 0x23, 0xbe, 0x5d, 0x8e, 0x13, 0xbd,
  0xf6, 0xae, 0xf8, 0x3e, 0x59, 0xed, 0x03, 0xbe, 0xbb, 0xad, 0xc0, 0x3e,
  0x46, 0x9b, 0xa9, 0x3e, 0xd4, 0xff, 0xa3, 0xbe, 0x67, 0xdb, 0x02, 0xbe,
  0x67, 0x69, 0x16, 0x3f, 0xf8, 0x5b, 0xe2, 0xbd, 0x5d, 0x5a, 0xc2, 0x3e,
  0x7b, 0xab, 0x0e, 0x3e, 0x59, 0xce, 0x06, 0xbe, 0xdc, 0x16, 0xc1, 0x3d,
  0xbd, 0x66, 0x9d, 0x3e, 0x61, 0x2b, 0x03, 0xbe, 0xe0, 0xe8, 0x93, 0x3e,
  0x97, 0xa0, 0x50, 0x3e, 0x19, 0xa1, 0xa2, 0x3e, 0x9f, 0x9f, 0x37, 0xbd,
  0xc2, 0x0f, 0xdf, 0x3e, 0xe4, 0xea, 0x06, 0x3d, 0x81, 0xba, 0x5d, 0x3e,
  0xc8, 0xee, 0x24, 0x3e, 0x8d, 0x85, 0x99, 0x3c, 0xe8, 0x64, 0x1b, 0xbb,
  0x61, 0x39, 0xab, 0x3e, 0xd1, 0x55, 0x81, 0xbe, 0xfa, 0x64, 0xe2, 0x3e,
  0x01, 0xe2, 0x6d, 0x3e, 0x9b, 0xd1, 0xf7, 0x3d, 0x97, 0x83, 0xb0, 0x3d,
  0x6c, 0xc4, 0x37, 0xbd, 0xad, 0xe8, 0xe2, 0xbd, 0x24, 0x49, 0xf4, 0x3e,
  0x75, 0xea, 0x3f, 0x3e, 0xbe, 0x46, 0xf3, 0x3e, 0x44, 0xc9, 0x01, 0x3e,
  0xfd, 0x1f, 0x9d, 0x3d, 0x10, 0xa3, 0x9a, 0xbc, 0x28, 0x99, 0x6b, 0x3e,
  0x58, 0xc5, 0x06, 0x3d, 0x98, 0x38, 0x3b, 0x3e, 0xf8, 0x53, 0xfc, 0x3d,
  0x55, 0x24, 0xc9, 0xbb, 0x4c, 0x43, 0xc2, 0xbe, 0x9e, 0xb0, 0x1a, 0x3e,
  0x44, 0xf0, 0x5a, 0x3e, 0xa7, 0x28, 0x66, 0x3e, 0xc6, 0xb7, 0x9a, 0x3d,
  0xd0, 0xee, 0xca, 0xbe, 0x12, 0x74, 0xb0, 0xbe, 0x7f, 0x70, 0x47, 0x3e,
  0x29, 0x7c, 0x1c, 0xbe, 0x1c, 0x20, 0x8c, 0x3e, 0xda, 0x78, 0x2e, 0x3e,
  0x7b, 0x48, 0x2c, 0xbe, 0x0c, 0xde, 0x53, 0xbd, 0xb2, 0xe1, 0x53, 0x3e,
  0x86, 0x97, 0x91, 0x3d, 0xc6, 0xe5, 0x99, 0x3e, 0x65, 0x15, 0x3b, 0x3e,
  0x9e, 0x64, 0x5b, 0xbe, 0x5e, 0xc6, 0xe1, 0x3a, 0x6b, 0x86, 0xd2, 0x3d,
  0x95, 0x20, 0xe7, 0xbd, 0x35, 0xd3, 0x94, 0xbd, 0x15, 0x42, 0x49, 0x3e,
  0x31, 0x8a, 0x70, 0xbe, 0xf4, 0x58, 0x95, 0xbd, 0x8a, 0x09, 0xa9, 0x3d,
  0x1d, 0x7e, 0x11, 0xbd, 0xd9, 0x25, 0xc2, 0x3d, 0xb6, 0x3d, 0x43, 0x3e,
  0x44, 0x35, 0xa1, 0xbe, 0x07, 0x32, 0xb0, 0xbd, 0x55, 0x0e, 0xaf, 0xbd,
  0xd1, 0x8a, 0xf6, 0xbd, 0x20, 0xf2, 0xd8, 0x3b, 0xde, 0xc8, 0x8c, 0x3e,
  0xc5, 0x12, 0x8a, 0xbe, 0xb6, 0x24, 0x46, 0xbe, 0x3a, 0x02, 0xcd, 0x3d,
  0xd3, 0xef, 0x7c, 0xbe, 0x98, 0x22, 0x2f, 0xbe, 0x50, 0x81, 0xd5, 0x3c,
  0x8c, 0x1f, 0x15, 0xbe, 0xa2, 0x6e, 0x43, 0xbe, 0x2b, 0xff, 0x54, 0xbe,
  0x31, 0xe6, 0x5b, 0xbe, 0x45, 0x7f, 0x33, 0xbe, 0x0a, 0xb3, 0x60, 0x3e,
  0x50, 0xa8, 0x10, 0x3e, 0x68, 0x75, 0x0d, 0x3d, 0xd0, 0x4c, 0x04, 0xbe,
  0x97, 0x38, 0x4a, 0xbe, 0x66, 0x39, 0x45, 0x3e, 0x4e, 0x25, 0x18, 0x3e,
  0x38, 0xb9, 0x3c, 0x3e, 0xc4, 0x8a, 0xe4, 0xbd, 0x1c, 0x91, 0x33, 0x3e,
  0x02, 0x05, 0x4e, 0x3e, 0xc0, 0x2e, 0x83, 0x3c, 0x00, 0xee, 0xde, 0xba,
  0xce, 0x0e, 0xb2, 0xbd, 0xf5, 0xb1, 0x2a, 0xbe, 0x00, 0x31, 0xd0, 0x3d,
  0x58, 0xb4, 0x56, 0x3d, 0x62, 0x72, 0x59, 0xbe, 0x54, 0x1c, 0xc4, 0x3d,
  0xfc, 0xd7, 0x52, 0xbe, 0x15, 0xb3, 0x4e, 0xbe, 0x50, 0x6e, 0x8b, 0x3c,
  0xee, 0xa5, 0x3f, 0x3e, 0x88, 0xd0, 0xd1, 0x3d, 0x5e, 0xea, 0x5e, 0x3e,
  0x50, 0x65, 0xe1, 0x3d, 0x70, 0x4b, 0x2f, 0x3d, 0xb0, 0x9f, 0x09, 0xbd,
  0xe2, 0x39, 0x0e, 0x3e, 0xe2, 0xcc, 0x55, 0x3e, 0x7f, 0xa7, 0xc6, 0xbd,
  0xa0, 0x7b, 0x8a, 0x3b, 0xa8, 0xa9, 0x43, 0x3d, 0x28, 0xd1, 0x4f, 0x3d,
  0xfc, 0x2d, 0x0f, 0xbd, 0xf6, 0xbf, 0x2d, 0xbe, 0x30, 0xce, 0x0a, 0xbd,
  0xb0, 0xcb, 0x2f, 0xbe, 0x00, 0x7c, 0xd7, 0x3b, 0x08, 0xe8, 0x7a, 0xbd,
  0xa0, 0xb3, 0x24, 0x3d, 0x91, 0x59, 0x43, 0xbe, 0x2a, 0x20, 0x95, 0xbd,
  0xfa, 0x92, 0x28, 0x3e, 0x44, 0xbb, 0xbd, 0x3d, 0x8a, 0x0e, 0x05, 0xbe,
  0x38, 0x57, 0xdb, 0x3d, 0xa0, 0xb9, 0x02, 0xbc, 0x50, 0xdf, 0x25, 0xbe,
  0x60, 0x2e, 0x4f, 0xbd, 0xf4, 0x27, 0x2c, 0x3e, 0x3c, 0x93, 0x0b, 0xbe,
  0xf6, 0x2f, 0x2b, 0x3e, 0xeb, 0xca, 0x17, 0xbe, 0x9c, 0xde, 0xff, 0x3d,
  0x1a, 0xa2, 0x08, 0x3e, 0x60, 0xeb, 0x15, 0x3d, 0x96, 0xdc, 0x1c, 0x3e,
  0x67, 0xd8, 0x55, 0xbe, 0x98, 0x88, 0xdf, 0xbc, 0x60, 0xa7, 0x08, 0x3d,
  0x60, 0x62, 0x61, 0xbe, 0x20, 0x5b, 0x26, 0xbd, 0xc8, 0x4d, 0x9c, 0x3d,
  0x08, 0x4a, 0x19, 0x3e, 0x14, 0x97, 0x65, 0xbd, 0x40, 0xf1, 0x96, 0xbc,
  0x18, 0xc6, 0x74, 0x3d, 0x20, 0xdb, 0x40, 0x3d, 0x1e, 0x1d, 0x52, 0xbe,
  0xab, 0x78, 0x31, 0xbe, 0xed, 0xe1, 0x06, 0xbe, 0x9e, 0xf3, 0x2c, 0xbe,
  0xe6, 0x17, 0xf9, 0xbd, 0xb8, 0x18, 0x3d, 0x3e, 0x20, 0xab, 0x3f, 0xbc,
  0x21, 0x7b, 0x46, 0xbe, 0x48, 0x60, 0xb3, 0xbd, 0xf1, 0x48, 0x47, 0xbe,
  0x7f, 0x89, 0x17, 0xbe, 0x10, 0xd5, 0x54, 0xbd, 0x6a, 0x77, 0xbf, 0xbd,
  0x64, 0x06, 0x5e, 0xbe, 0xd5, 0xa9, 0xf7, 0xbe, 0x96, 0x69, 0x97, 0xbd,
  0xbe, 0x37, 0x10, 0x3f, 0x2f, 0x7a, 0x8e, 0xbe, 0x72, 0xc7, 0xdb, 0x3d,
  0xc1, 0xf8, 0xb6, 0x3e, 0xae, 0xcf, 0xaf, 0xbe, 0xee, 0x1e, 0xe3, 0x3c,
  0x42, 0x80, 0xa2, 0x3e, 0x39, 0xb5, 0xdd, 0xbe, 0xcd, 0x64, 0xcd, 0x3e,
  0xd4, 0x51, 0xa5, 0x3e, 0xa1, 0x6a, 0xf2, 0xbd, 0xd3, 0x45, 0x5f, 0x3e,
  0xa5, 0x34, 0xdd, 0x3e, 0x6d, 0x99, 0xc3, 0xbd, 0xee, 0x8d, 0x20, 0x3e,
  0x67, 0x2e, 0x91, 0x3d, 0x15, 0xfc, 0xfc, 0xbd, 0x90, 0xf8, 0xbb, 0xbd,
  0x26, 0x45, 0xf1, 0x3e, 0x85, 0xa5, 0x00, 0xbf, 0x4c, 0xbc, 0x98, 0x3e,
  0x73, 0xae, 0x1e, 0x3b, 0x84, 0xdd, 0x06, 0x3e, 0x2e, 0xee, 0xd9, 0xbd,
  0x33, 0xe6, 0xc4, 0x3e, 0xdc, 0xbf, 0xc9, 0xbd, 0xa8, 0x84, 0x01, 0x3e,
  0xac, 0x33, 0xb4, 0x3d, 0x65, 0xbd, 0xb0, 0x3d, 0x2d, 0x12, 0x1d, 0xbd,
  0xa2, 0xcb, 0x13, 0x3f, 0xd1, 0x57, 0x05, 0xbf, 0x46, 0xe2, 0xb7, 0x3e,
  0xc2, 0xfa, 0x68, 0x3d, 0x6c, 0x74, 0xad, 0x3d, 0xa7, 0x5e, 0xb4, 0xbd,
  0x50, 0x8e, 0x07, 0x3f, 0xcd, 0x9e, 0x0b, 0xbf, 0x82, 0xff, 0x46, 0x3e,
  0x75, 0x5d, 0x48, 0x3e, 0x90, 0x46, 0xa7, 0x3d, 0x12, 0xe6, 0x24, 0x3d,
  0x85, 0xa7, 0xb5, 0x3e, 0x53, 0x3c, 0x64, 0xbe, 0x51, 0x4c, 0x35, 0x3d,
  0xf6, 0x75, 0x02, 0x3e, 0x07, 0x12, 0xe5, 0x3e, 0xc0, 0xc7, 0x89, 0x3e,
  0x73, 0xe0, 0x8c, 0xbd, 0x1b, 0x0c, 0x1a, 0xbe, 0xff, 0x9a, 0xc5, 0x3b,
  0xf6, 0x97, 0x86, 0xbd, 0x73, 0x5a, 0x0a, 0x3e, 0x5a, 0x88, 0xe0, 0x3e,
  0xf6, 0xcc, 0x34, 0x3e, 0x0a, 0x67, 0x93, 0xbe, 0x89, 0x91, 0x43, 0x3e,
  0x77, 0xfc, 0x17, 0x3e, 0xbe, 0x59, 0xb9, 0x3d, 0x89, 0xb0, 0xfb, 0x3e,
  0x53, 0x5b, 0x67, 0xbe, 0xee, 0x3e, 0x7c, 0xbe, 0x13, 0xa0, 0xdc, 0x3c,
  0x92, 0xe0, 0x42, 0x3e, 0x18, 0xa7, 0x4b, 0x3d, 0xb8, 0x95, 0xe3, 0x3e,
  0x46, 0xc5, 0x4a, 0xbd, 0xa2, 0xfc, 0x02, 0xbe, 0x08, 0x71, 0xd5, 0x3d,
  0xaa, 0xf3, 0xe0, 0x3d, 0x9d, 0x62, 0x80, 0x3e, 0x74, 0xd5, 0xdf, 0x3e,
  0xfc, 0x1c, 0xe4, 0xbd, 0xc8, 0x81, 0x85, 0xbe, 0xa8, 0xea, 0x66, 0x3d,
  0x22, 0xe4, 0xaf, 0xbc, 0x97, 0xe1, 0x63, 0x3e, 0xce, 0xd7, 0x2f, 0x3e,
  0x3d, 0xd0, 0xd4, 0xbe, 0xf0, 0xa1, 0x0e, 0xbd, 0xf2, 0x48, 0x2f, 0x3e,
  0x39, 0x09, 0x91, 0x3c, 0x96, 0x31, 0xf3, 0xbc, 0xd3, 0x18, 0xf3, 0x3e,
  0x0b, 0x1d, 0x9a, 0xbe, 0x82, 0x1a, 0x0c, 0xbd, 0x18, 0xe8, 0x08, 0x3e,
  0xaf, 0xc9, 0xb3, 0x3c, 0xfc, 0xb6, 0xac, 0x3d, 0xd2, 0x4c, 0x2b, 0xbe,
  0xa0, 0x00, 0x26, 0x3c, 0xe0, 0x7d, 0xf0, 0xbb, 0x10, 0x45, 0xa8, 0x3d,
  0xe2, 0xc2, 0xd9, 0xbd, 0x10, 0x12, 0x1f, 0x3e, 0x70, 0xc4, 0x47, 0xbe,
  0xb0, 0xec, 0x45, 0x3d, 0xc2, 0x37, 0xdc, 0xbd, 0x38, 0x10, 0xec, 0xbc,
  0x20, 0x1d, 0xdf, 0x3d, 0x02, 0x2b, 0x26, 0x3e, 0x66, 0x3b, 0x3f, 0x3e,
  0x08, 0x45, 0x5f, 0x3e, 0x8e, 0x3f, 0x3c, 0xbe, 0xe0, 0x17, 0xa4, 0xbb,
  0x64, 0xcc, 0xa5, 0x3d, 0x38, 0x29, 0x29, 0x3d, 0xc0, 0x45, 0x6b, 0x3d,
  0x78, 0xbb, 0x60, 0xbd, 0x04, 0x41, 0x28, 0xbd, 0x50, 0xa2, 0x3f, 0x3d,
  0x45, 0x5f, 0x2c, 0xbe, 0x30, 0x38, 0xc4, 0x3c, 0x20, 0x3d, 0xe6, 0xbb,
  0xb8, 0x69, 0x1b, 0x3d, 0x7c, 0x50, 0x02, 0xbd, 0xc8, 0x08, 0x23, 0xbe,
  0x4e, 0xec, 0x94, 0xbd, 0x53, 0x07, 0xd8, 0xbd, 0xb4, 0x67, 0x89, 0x3d,
  0x3c, 0x8f, 0xd4, 0x3d, 0xc4, 0x5a, 0x49, 0xbd, 0xb8, 0x24, 0x98, 0xbd,
  0xba, 0x22, 0x2b, 0xbe, 0xe4, 0x3f, 0xf7, 0x3d, 0xb1, 0x58, 0x1e, 0xbe,
  0xc5, 0xb5, 0xd7, 0xbd, 0xfa, 0x29, 0x26, 0x3e, 0x38, 0x84, 0x24, 0x3e,
  0x68, 0x0b, 0x42, 0x3e, 0x3f, 0xa3, 0x39, 0xbe, 0xc4, 0x42, 0x20, 0x3e,
  0x85, 0x34, 0x0f, 0xbe, 0x20, 0xe9, 0x46, 0x3c, 0x40, 0x40, 0x34, 0x3b,
  0xa6, 0x42, 0x00, 0xbe, 0x70, 0x1c, 0x67, 0xbd, 0x0b, 0xf5, 0x1a, 0xbe,
  0x32, 0x4a, 0x39, 0x3e, 0xd6, 0x40, 0xd3, 0xbd, 0xf1, 0x2e, 0x1d, 0xbe,
  0xc4, 0x86, 0x26, 0xbd, 0x8e, 0x42, 0x1d, 0xbe, 0x96, 0xab, 0x0c, 0x3e,
  0x00, 0x70, 0x32, 0xbd, 0x8e, 0x00, 0x90, 0xbd, 0x6c, 0xc7, 0x4a, 0xbe,
  0x08, 0x71, 0xa0, 0xbc, 0xe4, 0x2c, 0xff, 0xbd, 0x60, 0xf4, 0xaa, 0xbc,
  0x40, 0x59, 0xa8, 0xbb, 0x1e, 0x08, 0x47, 0x3e, 0xf0, 0xdb, 0x23, 0xbd,
  0x38, 0x1b, 0x13, 0xbe, 0xec, 0xcc, 0x16, 0xbd, 0x48, 0x7d, 0xb9, 0x3c,
  0x5a, 0xcc, 0xd1, 0xbd, 0xe2, 0x52, 0x42, 0x3e, 0xc0, 0xae, 0x49, 0x3e,
  0x78, 0x3f, 0x15, 0xbd, 0x24, 0x98, 0x2e, 0xbe, 0x1c, 0xa7, 0x95, 0xbd,
  0x9c, 0x1d, 0xda, 0x3d, 0x75, 0x48, 0xf4, 0xbd, 0x11, 0x84, 0x57, 0xbe,
  0xe4, 0xe7, 0x15, 0xbd, 0xb6, 0x6b, 0xbc, 0xbd, 0x48, 0x37, 0xc5, 0xbd,
  0xa0, 0xcb, 0xcc, 0xbd, 0x24, 0xf6, 0xc6, 0x3d, 0x90, 0x54, 0x5c, 0x3e,
  0x90, 0xde, 0x5d, 0x3c, 0xc8, 0xe4, 0xab, 0x3c, 0xb2, 0xb7, 0x4d, 0xbe,
  0x28, 0xd6, 0x20, 0x3e, 0x70, 0xc6, 0xa2, 0x3d, 0xe8, 0x32, 0xa8, 0x3d,
  0x1f, 0x87, 0xeb, 0xbd, 0x94, 0xef, 0x09, 0x3f, 0x6f, 0xc9, 0xb7, 0xbd,
  0xeb, 0xb1, 0x6d, 0xbe, 0xaf, 0x8c, 0xb7, 0xbd, 0xe0, 0xd8, 0x75, 0x3d,
  0x9f, 0x25, 0xbf, 0xbe, 0xdc, 0xc8, 0x0a, 0x3e, 0xcd, 0xa7, 0x98, 0xbe,
  0xea, 0x21, 0x22, 0x3d, 0xc0, 0xb0, 0x39, 0x3e, 0xfd, 0xb2, 0x9f, 0xbd,
  0xf6, 0x21, 0xfe, 0xbd, 0x3a, 0x35, 0xd1, 0x3d, 0xad, 0x38, 0x62, 0xbd,
  0xde, 0x84, 0x0d, 0xbe, 0x14, 0x76, 0x6b, 0xbd, 0x68, 0xac, 0x05, 0x3e,
  0xc2, 0x87, 0x95, 0xbc, 0x38, 0x32, 0xa9, 0x3e, 0x4e, 0xfe, 0x1c, 0xba,
  0x5f, 0x2c, 0xda, 0xbd, 0x82, 0xae, 0x6b, 0x3d, 0x88, 0xcb, 0x5b, 0x3e,
  0x64, 0xa8, 0x12, 0xbd, 0xfa, 0x50, 0x4e, 0x3d, 0x14, 0x19, 0x0c, 0xbe,
  0x6b, 0x76, 0x6d, 0xbe, 0xfc, 0xf0, 0x6f, 0x3b, 0x34, 0x12, 0xee, 0xbc,
  0xff, 0x2e, 0x2b, 0x3e, 0xac, 0x5f, 0xb0, 0x3e, 0x06, 0x65, 0x64, 0xbd,
  0x04, 0x95, 0x0e, 0x3e, 0xea, 0x96, 0xc1, 0x3e, 0xd3, 0x8b, 0x0f, 0xbe,
  0x63, 0xea, 0x23, 0x3d, 0x14, 0xee, 0xcf, 0x3e, 0x99, 0xd7, 0x81, 0xbc,
  0x42, 0xf9, 0xa7, 0x3b, 0x3a, 0x07, 0xec, 0x3d, 0x67, 0x5c, 0xd0, 0xbd,
  0xae, 0xbd, 0xbd, 0x3d, 0xb8, 0xd5, 0xa3, 0x3e, 0xed, 0x43, 0x15, 0xbe,
  0x5d, 0xcd, 0x15, 0xbe, 0x72, 0xd0, 0xc3, 0x3e, 0xd8, 0x4a, 0xe8, 0x3d,
  0x3f, 0x36, 0x3f, 0x3e, 0xb2, 0x25, 0xac, 0x3e, 0xd9, 0x32, 0xc7, 0xbe,
  0xeb, 0xcb, 0x91, 0xbe, 0xef, 0xd7, 0xa0, 0x3e, 0xcc, 0xe1, 0xf5, 0xbc,
  0xe0, 0x49, 0xb5, 0xba, 0x9e, 0x58, 0x01, 0xbd, 0x11, 0x3e, 0x55, 0xbe,
  0xb8, 0xc1, 0x04, 0xbe, 0x08, 0xcf, 0x14, 0x3e, 0xd6, 0xa1, 0xc7, 0x3d,
  0xf6, 0xf3, 0x8c, 0x3e, 0x36, 0x98, 0xae, 0x3e, 0x45, 0xd0, 0xb1, 0xbe,
  0x5b, 0xf8, 0x00, 0x3e, 0x9f, 0xeb, 0x6b, 0x3e, 0xcc, 0x59, 0x1f, 0x3e,
  0xb5, 0x79, 0x83, 0x3e, 0x9b, 0xbc, 0x55, 0x3e, 0xd5, 0xd1, 0x8d, 0xbe,
  0x17, 0x85, 0x48, 0x3e, 0x55, 0xf6, 0x43, 0x3e, 0x79, 0x1c, 0x0f, 0xbd,
  0x94, 0xfd, 0x60, 0x3d, 0x0b, 0x8a, 0xa9, 0x3e, 0x59, 0x9e, 0x21, 0xbe,
  0xdc, 0x80, 0x40, 0xbe, 0xee, 0xa9, 0x81, 0x3e, 0x5e, 0xd0, 0xf3, 0xbd,
  0x58, 0xca, 0x85, 0x3e, 0x58, 0x0c, 0x69, 0x3e, 0x7a, 0x63, 0x79, 0xbd,
  0x44, 0xd1, 0x37, 0x3e, 0xa5, 0x08, 0x5e, 0x3e, 0x35, 0x55, 0x6c, 0x3d,
  0xd9, 0x5f, 0x61, 0x3e, 0xf3, 0x2f, 0x1b, 0x3e, 0x5c, 0x3c, 0x9d, 0xbd,
  0xae, 0x51, 0x8a, 0xbc, 0xd7, 0x9b, 0x7b, 0x3e, 0x0b, 0x70, 0x8d, 0x3e,
  0x00, 0xf5, 0x29, 0x3e, 0xf2, 0x50, 0xfd, 0x3d, 0x0b, 0x5a, 0xc9, 0xbd,
  0xe3, 0xd1, 0x91, 0x3e, 0x4d, 0x22, 0xa9, 0xbd, 0x6d, 0x75, 0x89, 0x3e,
  0xf3, 0x97, 0xa3, 0xbd, 0x78, 0x34, 0xd4, 0xbd, 0x84, 0x18, 0xfb, 0xbd,
  0x25, 0xf9, 0xb6, 0x3e, 0x20, 0x40, 0x4c, 0xbd, 0x66, 0x75, 0x4a, 0x3e,
  0xf1, 0xab, 0x11, 0xbc, 0x49, 0xae, 0xcc, 0xbc, 0x74, 0x00, 0x11, 0x3e,
  0xbc, 0xcd, 0x01, 0x3e, 0x1d, 0x2b, 0x81, 0xbd, 0x36, 0xeb, 0x91, 0x3e,
  0x99, 0x69, 0xbd, 0xbd, 0xb6, 0x08, 0x09, 0x3e, 0xb4, 0xc2, 0x5c, 0xbe,
  0xff, 0x7f, 0xcb, 0x3e, 0x7d, 0x13, 0xdc, 0xbd, 0xae, 0x6b, 0x7e, 0x3e,
  0x47, 0xd0, 0x55, 0x3e, 0xb4, 0xec, 0x18, 0x3e, 0x88, 0x9f, 0xcb, 0xbd,
  0x4a, 0xed, 0x1f, 0x3e, 0x80, 0x0c, 0x4b, 0xbd, 0x59, 0x6f, 0xab, 0x3e,
  0x8d, 0x45, 0x81, 0x3a, 0x7c, 0xa9, 0xd7, 0x3e, 0xd2, 0x94, 0x8b, 0x3a,
  0x33, 0xd0, 0x80, 0xbd, 0x9c, 0x09, 0x77, 0x3e, 0xda, 0xbe, 0xaa, 0x3e,
  0x6f, 0x06, 0x78, 0x3e, 0x88, 0x41, 0xf6, 0x3e, 0x6d, 0xf7, 0x8f, 0xbe,
  0x9c, 0xf0, 0x00, 0x3d, 0x91, 0xf8, 0xa9, 0x3d, 0x02, 0xb1, 0x75, 0x3e,
  0x61, 0x8a, 0x41, 0x3d, 0xb0, 0xb7, 0x22, 0x3f, 0x05, 0xf5, 0x8b, 0x3b,
  0xf7, 0x4a, 0x0c, 0xbe, 0x7f, 0xa0, 0x35, 0x3e, 0xcd, 0xb2, 0x92, 0x3e,
  0x7c, 0xe8, 0x01, 0x3d, 0x09, 0x05, 0x10, 0x3f, 0x80, 0x0d, 0xd5, 0xbe,
  0x63, 0x67, 0x44, 0xbe, 0x71, 0x34, 0x2d, 0x3e, 0x9c, 0x88, 0x7f, 0x3c,
  0xab, 0xf9, 0x11, 0x3e, 0xc5, 0xfd, 0x5f, 0x3e, 0x3e, 0x4e, 0x86, 0xbe,
  0x84, 0x63, 0x70, 0xbe, 0xa6, 0x93, 0x78, 0x3e, 0x34, 0x35, 0x7b, 0x3e,
  0xcd, 0x2f, 0x91, 0xbd, 0x5a, 0xf9, 0x93, 0x3e, 0x1c, 0x42, 0x89, 0xbe,
  0xeb, 0x69, 0x80, 0xbe, 0x17, 0xb1, 0x9e, 0x3d, 0x63, 0x7c, 0xa6, 0xbd,
  0x2d, 0x27, 0xd9, 0x3d, 0xca, 0x22, 0xe6, 0x3e, 0xb8, 0x39, 0x70, 0x3d,
  0x1d, 0x66, 0xc6, 0xbe, 0x9d, 0x58, 0x94, 0xbd, 0x0d, 0xb6, 0xa1, 0x3d,
  0x3c, 0xf7, 0x13, 0x3e, 0x7c, 0x76, 0x76, 0x3e, 0x70, 0xfe, 0x4c, 0xbe,
  0xd9, 0x1a, 0x9a, 0xbe, 0xb8, 0xf7, 0xb9, 0x3d, 0x9f, 0xe4, 0x4e, 0x3d,
  0x1f, 0x9d, 0x2e, 0xbd, 0x67, 0x07, 0xda, 0x3e, 0x48, 0x09, 0xb6, 0x3d,
  0x24, 0x8c, 0xae, 0xbe, 0x2e, 0x99, 0x51, 0xbe, 0x82, 0x2a, 0xde, 0x3c,
  0xdb, 0x82, 0x31, 0x3e, 0x0d, 0xe0, 0xd2, 0x3e, 0x6d, 0xaf, 0xf2, 0xbd,
  0xcf, 0xe9, 0x42, 0xbe, 0x11, 0x29, 0xdc, 0xbd, 0x78, 0xf4, 0x14, 0xbe,
  0x38, 0x4b, 0x3d, 0xbe, 0x4e, 0xe1, 0x22, 0xbe, 0x9a, 0x1d, 0x2c, 0x3e,
  0x70, 0x95, 0x44, 0xbc, 0x10, 0xb5, 0x01, 0xbc, 0x00, 0xe5, 0xe6, 0xbd,
  0x78, 0x28, 0x14, 0x3e, 0x66, 0x7b, 0x0c, 0x3e, 0x34, 0xde, 0xcb, 0x3d,
  0xca, 0x01, 0xa9, 0xbd, 0xa2, 0x92, 0x98, 0xbd, 0x8b, 0x27, 0x3a, 0xbe,
  0x3f, 0x32, 0x21, 0xbe, 0x40, 0xd2, 0x89, 0x3d, 0x38, 0x0b, 0x47, 0xbe,
  0xc8, 0xa5, 0x12, 0xbd, 0xde, 0x56, 0x34, 0xbe, 0xa0, 0xa7, 0xd3, 0xbd,
  0x94, 0xa0, 0x89, 0xbd, 0xea, 0x90, 0x3a, 0x3e, 0xc0, 0x3e, 0x7d, 0x3c,
  0x0c, 0xcc, 0x47, 0xbe, 0x50, 0xe8, 0xe0, 0x3c, 0xcc, 0x08, 0x48, 0xbd,
  0x78, 0x86, 0x52, 0xbe, 0x3e, 0x2e, 0x09, 0x3e, 0xa0, 0x9f, 0xa3, 0xbd,
  0x7c, 0xae, 0x16, 0x3e, 0xf0, 0xf7, 0x33, 0x3c, 0x18, 0x34, 0xb1, 0x3c,
  0xe4, 0x86, 0x76, 0xbd, 0x4c, 0x2a, 0x17, 0xbd, 0x26, 0xb4, 0x4d, 0x3e,
  0x74, 0xec, 0x47, 0xbe, 0xe0, 0x7b, 0x33, 0x3d, 0x3a, 0xcd, 0x2f, 0xbe,
  0xb1, 0xc7, 0x5f, 0xbe, 0x30, 0xc7, 0x61, 0x3c, 0xcc, 0xc9, 0x3d, 0xbd,
  0x34, 0x03, 0x4c, 0x3e, 0x53, 0x76, 0xed, 0xbd, 0x20, 0x1f, 0x5e, 0xbc,
  0x8a, 0xc5, 0xc5, 0xbd, 0x67, 0x06, 0x54, 0xbe, 0x21, 0x97, 0x3f, 0xbe,
  0x97, 0x6c, 0x3f, 0xbe, 0xb4, 0x0d, 0x84, 0x3d, 0xb4, 0x24, 0xb0, 0xbd,
  0x08, 0x4b, 0x66, 0x3d, 0xa8, 0x5d, 0x99, 0xbd, 0xba, 0x71, 0x32, 0xbe,
  0xee, 0x16, 0x29, 0x3e, 0x80, 0x10, 0xde, 0x3b, 0x48, 0x4f, 0x23, 0xbd,
  0x8f, 0xd1, 0xce, 0xbd, 0x0c, 0x87, 0xcb, 0x3d, 0x1c, 0xbf, 0xc4, 0xbd,
  0xf8, 0xe3, 0x59, 0x3d, 0x00, 0x45, 0x24, 0x3d, 0x94, 0x53, 0x68, 0xbd,
  0x6c, 0x48, 0x42, 0xbe, 0xd0, 0x29, 0xa6, 0xbd, 0xb4, 0xe3, 0xa0, 0x3d,
  0x80, 0x63, 0x49, 0xbe, 0x80, 0x14, 0x03, 0x3e, 0x9a, 0x85, 0xdd, 0xbd,
  0x50, 0x07, 0x26, 0x3d, 0x3e, 0x87, 0x07, 0x3e, 0xba, 0xad, 0x07, 0x3e,
  0xe4, 0xae, 0x92, 0x3d, 0x30, 0xaa, 0x80, 0x3d, 0x50, 0x0a, 0xf2, 0x3c,
  0xe8, 0x49, 0x45, 0xbd, 0x60, 0xc8, 0x1b, 0xbe, 0x08, 0x5e, 0x4c, 0x3e,
  0xc4, 0x50, 0x57, 0x3e, 0x22, 0xfd, 0x30, 0x3e, 0x34, 0x4a, 0x08, 0x3e,
  0xe8, 0x21, 0x94, 0x3d, 0xf0, 0xd6, 0x5f, 0xbd, 0xe6, 0x34, 0x80, 0xbd,
  0x08, 0x94, 0xb4, 0xbd, 0x35, 0xcc, 0x20, 0xbe, 0xe6, 0x62, 0x0f, 0xbe,
  0x00, 0xa0, 0x65, 0x3a, 0xce, 0x28, 0x2a, 0x3e, 0x8a, 0x14, 0x04, 0xbe,
  0x18, 0x1b, 0x39, 0xbd, 0xf0, 0x25, 0xb9, 0x3d, 0xf3, 0xe7, 0x37, 0xbe,
  0x48, 0x45, 0x0d, 0x3d, 0x2f, 0x6b, 0x17, 0xbf, 0x19, 0x1e, 0x10, 0x3e,
  0x98, 0x62, 0x87, 0x3e, 0x11, 0x8b, 0x05, 0x3e, 0x3c, 0x09, 0x5a, 0x3e,
  0x74, 0x0e, 0xee, 0x3e, 0x42, 0x55, 0x42, 0xbe, 0x87, 0x08, 0x00, 0x3e,
  0x80, 0x97, 0xca, 0x3d, 0x71, 0x23, 0xa8, 0x3e, 0xad, 0x09, 0x4a, 0x3c,
  0x69, 0x9e, 0xe8, 0x3e, 0xd4, 0xbd, 0xc9, 0xbd, 0x3b, 0x76, 0x41, 0x3e,
  0xcf, 0x2f, 0x53, 0x3e, 0x5b, 0xf2, 0xc3, 0x3d, 0xfd, 0x4d, 0x79, 0x3e,
  0xa4, 0xda, 0xdb, 0x3e, 0xbc, 0x22, 0x27, 0xbd, 0x2f, 0x46, 0xf2, 0x3d,
  0x11, 0x9b, 0x5e, 0x3e, 0xb9, 0x43, 0x26, 0x3e, 0xf1, 0x35, 0x54, 0x3e,
  0xae, 0x55, 0x6a, 0x3d, 0x7d, 0x77, 0xf4, 0xbd, 0x7d, 0x93, 0x01, 0xbc,
  0x1d, 0xca, 0x61, 0xbd, 0x34, 0xe1, 0x8e, 0x3e, 0xc3, 0x9c, 0x90, 0x3e,
  0xee, 0x97, 0xbf, 0xbd, 0x6c, 0x45, 0xa0, 0xbc, 0x94, 0xc3, 0x6b, 0xbd,
  0x47, 0x72, 0x17, 0x3e, 0xee, 0xd1, 0xef, 0x3d, 0x62, 0xca, 0xb1, 0x3e,
  0xe1, 0x13, 0x16, 0x3d, 0xcf, 0x81, 0x4a, 0xbd, 0xf4, 0xd8, 0x31, 0x3e,
  0x15, 0x00, 0x1c, 0xbe, 0x43, 0xc0, 0x14, 0xbe, 0xed, 0x33, 0x72, 0x3d,
  0xaf, 0x22, 0x96, 0xbd, 0x0c, 0xec, 0x7c, 0xba, 0x97, 0x26, 0x5a, 0x3c,
  0x0f, 0xa8, 0x3a, 0xbd, 0x50, 0x04, 0x93, 0x3c, 0x8e, 0xcf, 0xcc, 0x3e,
  0x1c, 0x56, 0xde, 0x3d, 0x13, 0x87, 0x92, 0xbd, 0xe4, 0x0b, 0x92, 0xbd,
  0x9f, 0xad, 0x66, 0xbd, 0x29, 0xd8, 0x0c, 0x3e, 0xeb, 0x8e, 0x7d, 0x3d,
  0xbf, 0xef, 0x15, 0xbe, 0x79, 0xff, 0x22, 0x3e, 0x1a, 0xf1, 0xfc, 0x3d,
  0x33, 0xe4, 0x99, 0xbe, 0xfd, 0x17, 0x39, 0x3e, 0x75, 0x15, 0x43, 0x3e,
  0x50, 0x47, 0x77, 0xbe, 0x73, 0xdc, 0xeb, 0x3d, 0x15, 0xf3, 0x3f, 0x3d,
  0x0f, 0x95, 0x6f, 0xbd, 0xff, 0x98, 0xa8, 0x3d, 0x70, 0xab, 0xf0, 0xbd,
  0xd5, 0xc8, 0x16, 0xbe, 0xb5, 0x32, 0x3e, 0xbe, 0x6e, 0x17, 0x3e, 0x3e,
  0x9d, 0x36, 0x79, 0x3d, 0xe9, 0xaf, 0x42, 0xbe, 0xf2, 0x26, 0x31, 0x3c,
  0xf2, 0x9d, 0x70, 0xbe, 0x3d, 0x5c, 0x05, 0xbd, 0x73, 0x94, 0x1f, 0x3d,
  0x0a, 0xb3, 0x45, 0xbe, 0xff, 0x1d, 0x3c, 0x3d, 0x99, 0x90, 0x4e, 0x3e,
  0x0b, 0x22, 0x03, 0xbe, 0x92, 0x00, 0x04, 0xbd, 0xf2, 0x1e, 0x6a, 0xbe,
  0x04, 0x4c, 0x8e, 0xbe, 0xa5, 0xac, 0xdc, 0x3d, 0xe6, 0x6f, 0x60, 0xbe,
  0xdd, 0xa5, 0x32, 0xbe, 0x63, 0x0d, 0xc5, 0xbe, 0x25, 0x9b, 0x81, 0xbe,
  0xbe, 0x8a, 0xe5, 0xbd, 0x86, 0xbd, 0x2e, 0xbe, 0x77, 0x97, 0x91, 0xbd,
  0xd0, 0x7d, 0x2c, 0xbe, 0x96, 0xfe, 0xff, 0xff, 0x04, 0x00, 0x00, 0x00,
  0x80, 0x00, 0x00, 0x00, 0x00, 0x00, 0x00, 0x00, 0x84, 0xa8, 0x2a, 0x3d,
  0x00, 0x00, 0x00, 0x00, 0x8e, 0x2e, 0x25, 0xbc, 0x48, 0xf4, 0xbf, 0xbc,
  0x9e, 0x2f, 0xc8, 0xbb, 0xad, 0x43, 0x92, 0x3d, 0x00, 0x00, 0x00, 0x00,
  0x0f, 0x96, 0xda, 0x3d, 0x67, 0x46, 0x33, 0x3d, 0x37, 0x2f, 0x2a, 0x3b,
  0x81, 0xbf, 0x0f, 0x3d, 0x5f, 0x2e, 0x2e, 0xbb, 0x33, 0x8c, 0xd2, 0x3c,
  0x77, 0x52, 0xfc, 0x39, 0xf6, 0x9d, 0xb2, 0x3d, 0x00, 0x00, 0x00, 0x00,
  0x43, 0xdf, 0xf7, 0x3d, 0xa1, 0xa3, 0x0e, 0x3d, 0x22, 0x77, 0x91, 0xbc,
  0xc7, 0x48, 0x56, 0xbc, 0x00, 0x00, 0x00, 0x00, 0x00, 0x00, 0x00, 0x00,
  0x00, 0x00, 0x00, 0x00, 0x96, 0x4e, 0xb4, 0xbd, 0x00, 0x00, 0x00, 0x00,
  0xd5, 0x8c, 0x2a, 0xbd, 0x00, 0x00, 0x00, 0x00, 0xf5, 0x07, 0x84, 0x3d,
  0x28, 0x5b, 0xa0, 0xbc, 0x00, 0x00, 0x00, 0x00, 0x91, 0xbe, 0x1f, 0xbd,
  0x22, 0xff, 0xff, 0xff, 0x04, 0x00, 0x00, 0x00, 0x10, 0x00, 0x00, 0x00,
  0xe2, 0x73, 0x2f, 0x3d, 0xb2, 0xac, 0x86, 0xbe, 0x3e, 0xb7, 0x1e, 0x3e,
  0x78, 0x4f, 0x87, 0x3d, 0x3e, 0xff, 0xff, 0xff, 0x04, 0x00, 0x00, 0x00,
  0x20, 0x00, 0x00, 0x00, 0x00, 0x00, 0x00, 0x00, 0xe4, 0x86, 0x4c, 0xbc,
  0xbc, 0x65, 0xbb, 0xbc, 0x07, 0xec, 0x98, 0xba, 0xce, 0x78, 0x43, 0x3c,
  0x90, 0x86, 0xed, 0xbc, 0x80, 0xae, 0xd2, 0x3d, 0xa6, 0x40, 0xa1, 0x3d,
  0x5c, 0xfa, 0xff, 0xff, 0x60, 0xfa, 0xff, 0xff, 0x0f, 0x00, 0x00, 0x00,
  0x4d, 0x4c, 0x49, 0x52, 0x20, 0x43, 0x6f, 0x6e, 0x76, 0x65, 0x72, 0x74,
  0x65, 0x64, 0x2e, 0x00, 0x01, 0x00, 0x00, 0x00, 0x14, 0x00, 0x00, 0x00,
  0x00, 0x00, 0x0e, 0x00, 0x18, 0x00, 0x14, 0x00, 0x10, 0x00, 0x0c, 0x00,
  0x08, 0x00, 0x04, 0x00, 0x0e, 0x00, 0x00, 0x00, 0x14, 0x00, 0x00, 0x00,
  0x1c, 0x00, 0x00, 0x00, 0x24, 0x01, 0x00, 0x00, 0x28, 0x01, 0x00, 0x00,
  0x2c, 0x01, 0x00, 0x00, 0x04, 0x00, 0x00, 0x00, 0x6d, 0x61, 0x69, 0x6e,
  0x00, 0x00, 0x00, 0x00, 0x04, 0x00, 0x00, 0x00, 0xcc, 0x00, 0x00, 0x00,
  0x84, 0x00, 0x00, 0x00, 0x50, 0x00, 0x00, 0x00, 0x14, 0x00, 0x00, 0x00,
  0x00, 0x00, 0x0e, 0x00, 0x1a, 0x00, 0x14, 0x00, 0x10, 0x00, 0x0c, 0x00,
  0x0b, 0x00, 0x04, 0x00, 0x0e, 0x00, 0x00, 0x00, 0x1c, 0x00, 0x00, 0x00,
  0x00, 0x00, 0x00, 0x09, 0x1c, 0x00, 0x00, 0x00, 0x20, 0x00, 0x00, 0x00,
  0x01, 0x00, 0x00, 0x00, 0x00, 0x00, 0x06, 0x00, 0x08, 0x00, 0x04, 0x00,
  0x06, 0x00, 0x00, 0x00, 0x00, 0x00, 0x80, 0x3f, 0x01, 0x00, 0x00, 0x00,
  0x0a, 0x00, 0x00, 0x00, 0x01, 0x00, 0x00, 0x00, 0x09, 0x00, 0x00, 0x00,
  0x9a, 0xff, 0xff, 0xff, 0x10, 0x00, 0x00, 0x00, 0x00, 0x00, 0x00, 0x08,
  0x0c, 0x00, 0x00, 0x00, 0x10, 0x00, 0x00, 0x00, 0x24, 0xfb, 0xff, 0xff,
  0x01, 0x00, 0x00, 0x00, 0x09, 0x00, 0x00, 0x00, 0x03, 0x00, 0x00, 0x00,
  0x08, 0x00, 0x00, 0x00, 0x06, 0x00, 0x00, 0x00, 0x02, 0x00, 0x00, 0x00,
  0xca, 0xff, 0xff, 0xff, 0x10, 0x00, 0x00, 0x00, 0x00, 0x00, 0x00, 0x08,
  0x10, 0x00, 0x00, 0x00, 0x14, 0x00, 0x00, 0x00, 0xba, 0xff, 0xff, 0xff,
  0x00, 0x00, 0x00, 0x01, 0x01, 0x00, 0x00, 0x00, 0x08, 0x00, 0x00, 0x00,
  0x03, 0x00, 0x00, 0x00, 0x07, 0x00, 0x00, 0x00, 0x05, 0x00, 0x00, 0x00,
  0x01, 0x00, 0x00, 0x00, 0x00, 0x00, 0x0e, 0x00, 0x16, 0x00, 0x00, 0x00,
  0x10, 0x00, 0x0c, 0x00, 0x0b, 0x00, 0x04, 0x00, 0x0e, 0x00, 0x00, 0x00,
  0x18, 0x00, 0x00, 0x00, 0x00, 0x00, 0x00, 0x08, 0x18, 0x00, 0x00, 0x00,
  0x1c, 0x00, 0x00, 0x00, 0x00, 0x00, 0x06, 0x00, 0x08, 0x00, 0x07, 0x00,
  0x06, 0x00, 0x00, 0x00, 0x00, 0x00, 0x00, 0x01, 0x01, 0x00, 0x00, 0x00,
  0x07, 0x00, 0x00, 0x00, 0x03, 0x00, 0x00, 0x00, 0x00, 0x00, 0x00, 0x00,
  0x04, 0x00, 0x00, 0x00, 0x03, 0x00, 0x00, 0x00, 0x01, 0x00, 0x00, 0x00,
  0x0a, 0x00, 0x00, 0x00, 0x01, 0x00, 0x00, 0x00, 0x00, 0x00, 0x00, 0x00,
  0x0b, 0x00, 0x00, 0x00, 0x04, 0x04, 0x00, 0x00, 0x94, 0x03, 0x00, 0x00,
  0x24, 0x03, 0x00, 0x00, 0xd0, 0x02, 0x00, 0x00, 0x88, 0x02, 0x00, 0x00,
  0x3c, 0x02, 0x00, 0x00, 0xf0, 0x01, 0x00, 0x00, 0x68, 0x01, 0x00, 0x00,
  0xd8, 0x00, 0x00, 0x00, 0x60, 0x00, 0x00, 0x00, 0x04, 0x00, 0x00, 0x00,
  0x3e, 0xfc, 0xff, 0xff, 0x00, 0x00, 0x00, 0x01, 0x14, 0x00, 0x00, 0x00,
  0x1c, 0x00, 0x00, 0x00, 0x1c, 0x00, 0x00, 0x00, 0x0b, 0x00, 0x00, 0x00,
  0x34, 0x00, 0x00, 0x00, 0x02, 0x00, 0x00, 0x00, 0xff, 0xff, 0xff, 0xff,
  0x04, 0x00, 0x00, 0x00, 0x28, 0xfc, 0xff, 0xff, 0x19, 0x00, 0x00, 0x00,
  0x53, 0x74, 0x61, 0x74, 0x65, 0x66, 0x75, 0x6c, 0x50, 0x61, 0x72, 0x74,
  0x69, 0x74, 0x69, 0x6f, 0x6e, 0x65, 0x64, 0x43, 0x61, 0x6c, 0x6c, 0x3a,
  0x30, 0x00, 0x00, 0x00, 0x02, 0x00, 0x00, 0x00, 0x01, 0x00, 0x00, 0x00,
  0x04, 0x00, 0x00, 0x00, 0x96, 0xfc, 0xff, 0xff, 0x00, 0x00, 0x00, 0x01,
  0x14, 0x00, 0x00, 0x00, 0x1c, 0x00, 0x00, 0x00, 0x1c, 0x00, 0x00, 0x00,
  0x0a, 0x00, 0x00, 0x00, 0x50, 0x00, 0x00, 0x00, 0x02, 0x00, 0x00, 0x00,
  0xff, 0xff, 0xff, 0xff, 0x04, 0x00, 0x00, 0x00, 0x80, 0xfc, 0xff, 0xff,
  0x34, 0x00, 0x00, 0x00, 0x73, 0x65, 0x71, 0x75, 0x65, 0x6e, 0x74, 0x69,
  0x61, 0x6c, 0x2f, 0x64, 0x65, 0x6e, 0x73, 0x65, 0x5f, 0x32, 0x2f, 0x4d,
  0x61, 0x74, 0x4d, 0x75, 0x6c, 0x3b, 0x73, 0x65, 0x71, 0x75, 0x65, 0x6e,
  0x74, 0x69, 0x61, 0x6c, 0x2f, 0x64, 0x65, 0x6e, 0x73, 0x65, 0x5f, 0x32,
  0x2f, 0x42, 0x69, 0x61, 0x73, 0x41, 0x64, 0x64, 0x00, 0x00, 0x00, 0x00,
  0x02, 0x00, 0x00, 0x00, 0x01, 0x00, 0x00, 0x00, 0x04, 0x00, 0x00, 0x00,
  0x0a, 0xfd, 0xff, 0xff, 0x00, 0x00, 0x00, 0x01, 0x14, 0x00, 0x00, 0x00,
  0x1c, 0x00, 0x00, 0x00, 0x1c, 0x00, 0x00, 0x00, 0x09, 0x00, 0x00, 0x00,
  0x68, 0x00, 0x00, 0x00, 0x02, 0x00, 0x00, 0x00, 0xff, 0xff, 0xff, 0xff,
  0x08, 0x00, 0x00, 0x00, 0xf4, 0xfc, 0xff, 0xff, 0x4c, 0x00, 0x00, 0x00,
  0x73, 0x65, 0x71, 0x75, 0x65, 0x6e, 0x74, 0x69, 0x61, 0x6c, 0x2f, 0x64,
  0x65, 0x6e, 0x73, 0x65, 0x5f, 0x31, 0x2f, 0x4d, 0x61, 0x74, 0x4d, 0x75,
  0x6c, 0x3b, 0x73, 0x65, 0x71, 0x75, 0x65, 0x6e, 0x74, 0x69, 0x61, 0x6c,
  0x2f, 0x64, 0x65, 0x6e, 0x73, 0x65, 0x5f, 0x31, 0x2f, 0x52, 0x65, 0x6c,
  0x75, 0x3b, 0x73, 0x65, 0x71, 0x75, 0x65, 0x6e, 0x74, 0x69, 0x61, 0x6c,
  0x2f, 0x64, 0x65, 0x6e, 0x73, 0x65, 0x5f, 0x31, 0x2f, 0x42, 0x69, 0x61,
  0x73, 0x41, 0x64, 0x64, 0x00, 0x00, 0x00, 0x00, 0x02, 0x00, 0x00, 0x00,
  0x01, 0x00, 0x00, 0x00, 0x08, 0x00, 0x00, 0x00, 0x96, 0xfd, 0xff, 0xff,
  0x00, 0x00, 0x00, 0x01, 0x14, 0x00, 0x00, 0x00, 0x1c, 0x00, 0x00, 0x00,
  0x1c, 0x00, 0x00, 0x00, 0x08, 0x00, 0x00, 0x00, 0x60, 0x00, 0x00, 0x00,
  0x02, 0x00, 0x00, 0x00, 0xff, 0xff, 0xff, 0xff, 0x20, 0x00, 0x00, 0x00,
  0x80, 0xfd, 0xff, 0xff, 0x46, 0x00, 0x00, 0x00, 0x73, 0x65, 0x71, 0x75,
  0x65, 0x6e, 0x74, 0x69, 0x61, 0x6c, 0x2f, 0x64, 0x65, 0x6e, 0x73, 0x65,
  0x2f, 0x4d, 0x61, 0x74, 0x4d, 0x75, 0x6c, 0x3b, 0x73, 0x65, 0x71, 0x75,
  0x65, 0x6e, 0x74, 0x69, 0x61, 0x6c, 0x2f, 0x64, 0x65, 0x6e, 0x73, 0x65,
  0x2f, 0x52, 0x65, 0x6c, 0x75, 0x3b, 0x73, 0x65, 0x71, 0x75, 0x65, 0x6e,
  0x74, 0x69, 0x61, 0x6c, 0x2f, 0x64, 0x65, 0x6e, 0x73, 0x65, 0x2f, 0x42,
  0x69, 0x61, 0x73, 0x41, 0x64, 0x64, 0x00, 0x00, 0x02, 0x00, 0x00, 0x00,
  0x01, 0x00, 0x00, 0x00, 0x20, 0x00, 0x00, 0x00, 0x86, 0xfe, 0xff, 0xff,
  0x00, 0x00, 0x00, 0x01, 0x10, 0x00, 0x00, 0x00, 0x10, 0x00, 0x00, 0x00,
  0x07, 0x00, 0x00, 0x00, 0x28, 0x00, 0x00, 0x00, 0xf4, 0xfd, 0xff, 0xff,
  0x19, 0x00, 0x00, 0x00, 0x73, 0x65, 0x71, 0x75, 0x65, 0x6e, 0x74, 0x69,
  0x61, 0x6c, 0x2f, 0x64, 0x65, 0x6e, 0x73, 0x65, 0x5f, 0x32, 0x2f, 0x4d,
  0x61, 0x74, 0x4d, 0x75, 0x6c, 0x00, 0x00, 0x00, 0x02, 0x00, 0x00, 0x00,
  0x04, 0x00, 0x00, 0x00, 0x08, 0x00, 0x00, 0x00, 0xce, 0xfe, 0xff, 0xff,
  0x00, 0x00, 0x00, 0x01, 0x10, 0x00, 0x00, 0x00, 0x10, 0x00, 0x00, 0x00,
  0x06, 0x00, 0x00, 0x00, 0x28, 0x00, 0x00, 0x00, 0x3c, 0xfe, 0xff, 0xff,
  0x19, 0x00, 0x00, 0x00, 0x73, 0x65, 0x71, 0x75, 0x65, 0x6e, 0x74, 0x69,
  0x61, 0x6c, 0x2f, 0x64, 0x65, 0x6e, 0x73, 0x65, 0x5f, 0x31, 0x2f, 0x4d,
  0x61, 0x74, 0x4d, 0x75, 0x6c, 0x00, 0x00, 0x00, 0x02, 0x00, 0x00, 0x00,
  0x08, 0x00, 0x00, 0x00, 0x20, 0x00, 0x00, 0x00, 0x16, 0xff, 0xff, 0xff,
  0x00, 0x00, 0x00, 0x01, 0x10, 0x00, 0x00, 0x00, 0x10, 0x00, 0x00, 0x00,
  0x05, 0x00, 0x00, 0x00, 0x24, 0x00, 0x00, 0x00, 0x84, 0xfe, 0xff, 0xff,
  0x17, 0x00, 0x00, 0x00, 0x73, 0x65, 0x71, 0x75, 0x65, 0x6e, 0x74, 0x69,
  0x61, 0x6c, 0x2f, 0x64, 0x65, 0x6e, 0x73, 0x65, 0x2f, 0x4d, 0x61, 0x74,
  0x4d, 0x75, 0x6c, 0x00, 0x02, 0x00, 0x00, 0x00, 0x20, 0x00, 0x00, 0x00,
  0x5a, 0x00, 0x00, 0x00, 0x5a, 0xff, 0xff, 0xff, 0x00, 0x00, 0x00, 0x01,
  0x10, 0x00, 0x00, 0x00, 0x10, 0x00, 0x00, 0x00, 0x04, 0x00, 0x00, 0x00,
  0x34, 0x00, 0x00, 0x00, 0xc8, 0xfe, 0xff, 0xff, 0x27, 0x00, 0x00, 0x00,
  0x73, 0x65, 0x71, 0x75, 0x65, 0x6e, 0x74, 0x69, 0x61, 0x6c, 0x2f, 0x64,
  0x65, 0x6e, 0x73, 0x65, 0x2f, 0x42, 0x69, 0x61, 0x73, 0x41, 0x64, 0x64,
  0x2f, 0x52, 0x65, 0x61, 0x64, 0x56, 0x61, 0x72, 0x69, 0x61, 0x62, 0x6c,
  0x65, 0x4f, 0x70, 0x00, 0x01, 0x00, 0x00, 0x00, 0x20, 0x00, 0x00, 0x00,
  0xaa, 0xff, 0xff, 0xff, 0x00, 0x00, 0x00, 0x01, 0x10, 0x00, 0x00, 0x00,
  0x10, 0x00, 0x00, 0x00, 0x03, 0x00, 0x00, 0x00, 0x38, 0x00, 0x00, 0x00,
  0x18, 0xff, 0xff, 0xff, 0x29, 0x00, 0x00, 0x00, 0x73, 0x65, 0x71, 0x75,
  0x65, 0x6e, 0x74, 0x69, 0x61, 0x6c, 0x2f, 0x64, 0x65, 0x6e, 0x73, 0x65,
  0x5f, 0x32, 0x2f, 0x42, 0x69, 0x61, 0x73, 0x41, 0x64, 0x64, 0x2f, 0x52,
  0x65, 0x61, 0x64, 0x56, 0x61, 0x72, 0x69, 0x61, 0x62, 0x6c, 0x65, 0x4f,
  0x70, 0x00, 0x00, 0x00, 0x01, 0x00, 0x00, 0x00, 0x04, 0x00, 0x00, 0x00,
  0x00, 0x00, 0x16, 0x00, 0x18, 0x00, 0x14, 0x00, 0x00, 0x00, 0x10, 0x00,
  0x0c, 0x00, 0x08, 0x00, 0x00, 0x00, 0x00, 0x00, 0x00, 0x00, 0x07, 0x00,
  0x16, 0x00, 0x00, 0x00, 0x00, 0x00, 0x00, 0x01, 0x10, 0x00, 0x00, 0x00,
  0x10, 0x00, 0x00, 0x00, 0x02, 0x00, 0x00, 0x00, 0x38, 0x00, 0x00, 0x00,
  0x84, 0xff, 0xff, 0xff, 0x29, 0x00, 0x00, 0x00, 0x73, 0x65, 0x71, 0x75,
  0x65, 0x6e, 0x74, 0x69, 0x61, 0x6c, 0x2f, 0x64, 0x65, 0x6e, 0x73, 0x65,
  0x5f, 0x31, 0x2f, 0x42, 0x69, 0x61, 0x73, 0x41, 0x64, 0x64, 0x2f, 0x52,
  0x65, 0x61, 0x64, 0x56, 0x61, 0x72, 0x69, 0x61, 0x62, 0x6c, 0x65, 0x4f,
  0x70, 0x00, 0x00, 0x00, 0x01, 0x00, 0x00, 0x00, 0x08, 0x00, 0x00, 0x00,
  0x00, 0x00, 0x16, 0x00, 0x1c, 0x00, 0x18, 0x00, 0x00, 0x00, 0x14, 0x00,
  0x10, 0x00, 0x0c, 0x00, 0x00, 0x00, 0x00, 0x00, 0x08, 0x00, 0x07, 0x00,
  0x16, 0x00, 0x00, 0x00, 0x00, 0x00, 0x00, 0x01, 0x14, 0x00, 0x00, 0x00,
  0x20, 0x00, 0x00, 0x00, 0x20, 0x00, 0x00, 0x00, 0x01, 0x00, 0x00, 0x00,
  0x3c, 0x00, 0x00, 0x00, 0x02, 0x00, 0x00, 0x00, 0xff, 0xff, 0xff, 0xff,
  0x5a, 0x00, 0x00, 0x00, 0x04, 0x00, 0x04, 0x00, 0x04, 0x00, 0x00, 0x00,
  0x1d, 0x00, 0x00, 0x00, 0x73, 0x65, 0x72, 0x76, 0x69, 0x6e, 0x67, 0x5f,
  0x64, 0x65, 0x66, 0x61, 0x75, 0x6c, 0x74, 0x5f, 0x64, 0x65, 0x6e, 0x73,
  0x65, 0x5f, 0x69, 0x6e, 0x70, 0x75, 0x74, 0x3a, 0x30, 0x00, 0x00, 0x00,
  0x02, 0x00, 0x00, 0x00, 0x01, 0x00, 0x00, 0x00, 0x5a, 0x00, 0x00, 0x00,
  0x02, 0x00, 0x00, 0x00, 0x20, 0x00, 0x00, 0x00, 0x04, 0x00, 0x00, 0x00,
  0xf4, 0xff, 0xff, 0xff, 0x19, 0x00, 0x00, 0x00, 0x00, 0x00, 0x00, 0x19,
  0x0c, 0x00, 0x0c, 0x00, 0x0b, 0x00, 0x00, 0x00, 0x00, 0x00, 0x04, 0x00,
  0x0c, 0x00, 0x00, 0x00, 0x09, 0x00, 0x00, 0x00, 0x00, 0x00, 0x00, 0x09
}; 
