const unsigned char gesture_model_q [] = {  
  0x1c, 0x00, 0x00, 0x00, 0x54, 0x46, 0x4c, 0x33, 0x14, 0x00, 0x20, 0x00,
  0x1c, 0x00, 0x18, 0x00, 0x14, 0x00, 0x10, 0x00, 0x0c, 0x00, 0x00, 0x00,
  0x08, 0x00, 0x04, 0x00, 0x14, 0x00, 0x00, 0x00, 0x1c, 0x00, 0x00, 0x00,
  0x84, 0x00, 0x00, 0x00, 0xdc, 0x00, 0x00, 0x00, 0x14, 0x0f, 0x00, 0x00,
  0x24, 0x0f, 0x00, 0x00, 0x84, 0x17, 0x00, 0x00, 0x03, 0x00, 0x00, 0x00,
  0x01, 0x00, 0x00, 0x00, 0x04, 0x00, 0x00, 0x00, 0x96, 0xf0, 0xff, 0xff,
  0x0c, 0x00, 0x00, 0x00, 0x1c, 0x00, 0x00, 0x00, 0x38, 0x00, 0x00, 0x00,
  0x0f, 0x00, 0x00, 0x00, 0x73, 0x65, 0x72, 0x76, 0x69, 0x6e, 0x67, 0x5f,
  0x64, 0x65, 0x66, 0x61, 0x75, 0x6c, 0x74, 0x00, 0x01, 0x00, 0x00, 0x00,
  0x04, 0x00, 0x00, 0x00, 0x98, 0xff, 0xff, 0xff, 0x0c, 0x00, 0x00, 0x00,
  0x04, 0x00, 0x00, 0x00, 0x07, 0x00, 0x00, 0x00, 0x64, 0x65, 0x6e, 0x73,
  0x65, 0x5f, 0x32, 0x00, 0x01, 0x00, 0x00, 0x00, 0x04, 0x00, 0x00, 0x00,
  0x9e, 0xf0, 0xff, 0xff, 0x04, 0x00, 0x00, 0x00, 0x0b, 0x00, 0x00, 0x00,
  0x64, 0x65, 0x6e, 0x73, 0x65, 0x5f, 0x69, 0x6e, 0x70, 0x75, 0x74, 0x00,
  0x02, 0x00, 0x00, 0x00, 0x34, 0x00, 0x00, 0x00, 0x04, 0x00, 0x00, 0x00,
  0xdc, 0xff, 0xff, 0xff, 0x0f, 0x00, 0x00, 0x00, 0x04, 0x00, 0x00, 0x00,
  0x13, 0x00, 0x00, 0x00, 0x43, 0x4f, 0x4e, 0x56, 0x45, 0x52, 0x53, 0x49,
  0x4f, 0x4e, 0x5f, 0x4d, 0x45, 0x54, 0x41, 0x44, 0x41, 0x54, 0x41, 0x00,
  0x08, 0x00, 0x0c, 0x00, 0x08, 0x00, 0x04, 0x00, 0x08, 0x00, 0x00, 0x00,
  0x0e, 0x00, 0x00, 0x00, 0x04, 0x00, 0x00, 0x00, 0x13, 0x00, 0x00, 0x00,
  0x6d, 0x69, 0x6e, 0x5f, 0x72, 0x75, 0x6e, 0x74, 0x69, 0x6d, 0x65, 0x5f,
  0x76, 0x65, 0x72, 0x73, 0x69, 0x6f, 0x6e, 0x00, 0x10, 0x00, 0x00, 0x00,
  0x34, 0x0e, 0x00, 0x00, 0x2c, 0x0e, 0x00, 0x00, 0x0c, 0x0e, 0x00, 0x00,
  0xdc, 0x0d, 0x00, 0x00, 0xac, 0x0d, 0x00, 0x00, 0x9c, 0x0c, 0x00, 0x00,
  0x0c, 0x0c, 0x00, 0x00, 0xbc, 0x00, 0x00, 0x00, 0xb4, 0x00, 0x00, 0x00,
  0xac, 0x00, 0x00, 0x00, 0xa4, 0x00, 0x00, 0x00, 0x9c, 0x00, 0x00, 0x00,
  0x94, 0x00, 0x00, 0x00, 0x8c, 0x00, 0x00, 0x00, 0x6c, 0x00, 0x00, 0x00,
  0x04, 0x00, 0x00, 0x00, 0x56, 0xf1, 0xff, 0xff, 0x04, 0x00, 0x00, 0x00,
  0x58, 0x00, 0x00, 0x00, 0x0c, 0x00, 0x00, 0x00, 0x08, 0x00, 0x0e, 0x00,
  0x08, 0x00, 0x04, 0x00, 0x08, 0x00, 0x00, 0x00, 0x10, 0x00, 0x00, 0x00,
  0x28, 0x00, 0x00, 0x00, 0x00, 0x00, 0x06, 0x00, 0x08, 0x00, 0x04, 0x00,
  0x06, 0x00, 0x00, 0x00, 0x04, 0x00, 0x00, 0x00, 0x01, 0x00, 0x00, 0x00,
  0xeb, 0x03, 0x00, 0x00, 0x00, 0x00, 0x0a, 0x00, 0x10, 0x00, 0x0c, 0x00,
  0x08, 0x00, 0x04, 0x00, 0x0a, 0x00, 0x00, 0x00, 0x02, 0x00, 0x00, 0x00,
  0x02, 0x00, 0x00, 0x00, 0x04, 0x00, 0x00, 0x00, 0x06, 0x00, 0x00, 0x00,
  0x32, 0x2e, 0x31, 0x30, 0x2e, 0x30, 0x00, 0x00, 0xba, 0xf1, 0xff, 0xff,
  0x04, 0x00, 0x00, 0x00, 0x10, 0x00, 0x00, 0x00, 0x31, 0x2e, 0x31, 0x34,
  0x2e, 0x30, 0x00, 0x00, 0x00, 0x00, 0x00, 0x00, 0x00, 0x00, 0x00, 0x00,
  0x48, 0xea, 0xff, 0xff, 0x4c, 0xea, 0xff, 0xff, 0x50, 0xea, 0xff, 0xff,
  0x54, 0xea, 0xff, 0xff, 0x58, 0xea, 0xff, 0xff, 0x5c, 0xea, 0xff, 0xff,
  0xee, 0xf1, 0xff, 0xff, 0x04, 0x00, 0x00, 0x00, 0x40, 0x0b, 0x00, 0x00,
  0xe2, 0x03, 0x09, 0xe2, 0xe3, 0xd8, 0xd8, 0xe3, 0x1b, 0x0c, 0xde, 0xeb,
  0xfa, 0x0b, 0x0f, 0xd5, 0xe1, 0xf4, 0xff, 0x25, 0xe0, 0xda, 0x1c, 0x0c,
  0xe5, 0x08, 0xf3, 0xf4, 0x03, 0xf2, 0xf7, 0xd9, 0x0a, 0xec, 0xe9, 0x2a,
  0x0d, 0xf1, 0xd4, 0xef, 0xe7, 0xe3, 0xed, 0x19, 0x09, 0x2a, 0xe8, 0xd9,
  0x09, 0x0a, 0xef, 0xea, 0x1b, 0xfb, 0xff, 0x0b, 0x10, 0xe4, 0x05, 0x1b,
  0xe5, 0x07, 0x2a, 0x23, 0xf9, 0xf5, 0xf8, 0xef, 0xee, 0x03, 0x0f, 0x15,
  0xeb, 0x20, 0x26, 0xe1, 0xd7, 0x1d, 0xd5, 0x29, 0xe0, 0xdd, 0x08, 0xea,
  0x12, 0x21, 0x22, 0xf9, 0x16, 0xe5, 0x21, 0xf0, 0xf5, 0x22, 0xf2, 0xcb,
  0x0f, 0xe3, 0xd4, 0xfc, 0x1d, 0x02, 0x46, 0x0e, 0xee, 0xe8, 0x19, 0xf5,
  0x45, 0xe8, 0xca, 0xff, 0x15, 0xd7, 0x07, 0xd7, 0xc9, 0x19, 0xcf, 0x1c,
  0xf3, 0xd8, 0xce, 0xf2, 0xd6, 0x18, 0x3e, 0x09, 0xec, 0x1e, 0xfb, 0x1b,
  0x33, 0x00, 0x04, 0x0e, 0xd5, 0xf1, 0x05, 0x10, 0x19, 0xe5, 0x10, 0x0b,
  0xe4, 0xd9, 0xf4, 0x2d, 0xdc, 0xfb, 0x0c, 0xf8, 0xf1, 0x14, 0xea, 0xee,
  0xef, 0xec, 0x22, 0xe0, 0x2a, 0xe0, 0x28, 0xe3, 0x12, 0x0a, 0xe6, 0x12,
  0x55, 0x03, 0x3a, 0x0d, 0x1b, 0x31, 0x4e, 0x13, 0x12, 0xee, 0x02, 0xfb,
  0x18, 0xec, 0x0e, 0x2b, 0xe7, 0xdc, 0xea, 0xf9, 0xdb, 0x15, 0x23, 0xdf,
  0x0e, 0xfb, 0xed, 0xd4, 0x1b, 0x23, 0x14, 0xec, 0xf9, 0xe1, 0x23, 0xdb,
  0xe8, 0xf9, 0xfe, 0x20, 0xdf, 0xd7, 0xd5, 0xeb, 0xe8, 0xf8, 0x0f, 0x2b,
  0x1d, 0x1e, 0xfc, 0x02, 0x00, 0xe8, 0xdb, 0xf3, 0x0b, 0x07, 0x0f, 0xfb,
  0xff, 0x0e, 0xd6, 0x12, 0xe4, 0x0a, 0xfb, 0x19, 0x0c, 0x26, 0x1a, 0x19,
  0x2a, 0x16, 0xdf, 0xea, 0x29, 0x05, 0xe0, 0xd6, 0xed, 0x11, 0x1d, 0xe5,
  0xf2, 0xde, 0x0c, 0x22, 0x27, 0xf4, 0xfc, 0xd6, 0xed, 0xec, 0xdd, 0xef,
  0x24, 0xf7, 0xdd, 0x0d, 0x19, 0x25, 0xfc, 0xe3, 0xe5, 0x16, 0x23, 0xd9,
  0xf0, 0x02, 0xf3, 0x23, 0xde, 0xe9, 0x1c, 0x22, 0x20, 0xdd, 0xe8, 0x06,
  0x0a, 0x05, 0xe2, 0xfb, 0xfe, 0x15, 0x27, 0xdf, 0x27, 0x19, 0xf6, 0x23,
  0xd4, 0xf4, 0xd2, 0x25, 0x02, 0x18, 0x06, 0xf6, 0xdb, 0xd2, 0xfa, 0xeb,
  0xfc, 0x24, 0x00, 0xfd, 0xe6, 0xde, 0xee, 0xe4, 0xf6, 0xf2, 0xe6, 0xf5,
  0x1b, 0x26, 0x09, 0xf0, 0x14, 0xf2, 0xeb, 0xe0, 0x16, 0xed, 0xf2, 0x0f,
  0x0b, 0xe2, 0x18, 0x28, 0x20, 0x1c, 0xdf, 0x28, 0xf9, 0xe2, 0x00, 0xe6,
  0xd6, 0x1a, 0x18, 0x14, 0xdb, 0xf1, 0x14, 0xde, 0x20, 0xea, 0x1c, 0xe0,
  0x13, 0xca, 0x16, 0xc0, 0x24, 0x0f, 0x2c, 0xc3, 0x34, 0xd6, 0xe1, 0x0a,
  0x36, 0x0f, 0x28, 0x11, 0x34, 0x0d, 0xf1, 0xff, 0x06, 0x07, 0x36, 0x0e,
  0x53, 0x04, 0x04, 0xf0, 0x07, 0xe6, 0x39, 0xee, 0x28, 0xf7, 0xed, 0x32,
  0x63, 0xe5, 0x07, 0xe7, 0x14, 0x09, 0x18, 0xc4, 0x0b, 0xfa, 0x20, 0x1a,
  0x36, 0xfa, 0xd5, 0x24, 0x33, 0x0f, 0x3d, 0xda, 0xe0, 0x12, 0xfe, 0xe6,
  0x0a, 0xf6, 0xbc, 0x0d, 0xf6, 0x08, 0x49, 0x03, 0xe8, 0x03, 0x25, 0xfa,
  0x47, 0xf9, 0xd6, 0xd7, 0x2e, 0x08, 0x25, 0x24, 0xd7, 0x12, 0x04, 0xf9,
  0x35, 0x27, 0x02, 0x0c, 0x18, 0x12, 0x28, 0x14, 0xf6, 0x10, 0x0b, 0xd3,
  0xf2, 0x05, 0xf7, 0xe1, 0xd3, 0xe2, 0x1c, 0xe1, 0xe0, 0xf7, 0xf8, 0x14,
  0xff, 0xd4, 0x28, 0x08, 0xf1, 0xfe, 0x0a, 0xd9, 0x11, 0xe6, 0x18, 0x01,
  0x0a, 0xeb, 0xdd, 0xda, 0x07, 0x20, 0x04, 0x0e, 0xf4, 0xe6, 0x1a, 0x0a,
  0xf0, 0x02, 0xea, 0xf9, 0xfa, 0xec, 0x1f, 0x13, 0x26, 0x25, 0xee, 0xe1,
  0xf8, 0x18, 0xdc, 0xfc, 0x06, 0x1d, 0xe6, 0x03, 0xf4, 0xd6, 0x13, 0xd6,
  0xd6, 0x1b, 0x04, 0x07, 0xdb, 0x27, 0x17, 0xf5, 0x03, 0xed, 0xe7, 0xf8,
  0xd9, 0x1f, 0x13, 0x2a, 0xda, 0x22, 0xf0, 0xfd, 0x16, 0x0e, 0xf9, 0x22,
  0x36, 0x07, 0xd2, 0xf0, 0xfd, 0xea, 0x11, 0xfe, 0xd3, 0xf8, 0xd5, 0xfc,
  0xd7, 0x1f, 0xec, 0x08, 0xce, 0x2c, 0xf6, 0x23, 0xca, 0xe6, 0xcf, 0x07,
  0xb3, 0x10, 0xf7, 0xd6, 0xdb, 0xf2, 0xb2, 0x3e, 0x04, 0x24, 0xfe, 0xe9,
  0xd0, 0x23, 0xf9, 0xca, 0xfd, 0xca, 0xcf, 0x34, 0x31, 0x03, 0x0d, 0xec,
  0xa4, 0x58, 0x16, 0x1f, 0xee, 0xe2, 0xf2, 0x4a, 0x54, 0xfa, 0xfa, 0x00,
  0xc7, 0x2d, 0x4f, 0x1b, 0xd2, 0xf2, 0xcc, 0x30, 0x55, 0x33, 0xda, 0x17,
  0xf9, 0x25, 0x3e, 0x33, 0xd5, 0x1c, 0xdf, 0x23, 0x56, 0x3b, 0xfb, 0x1c,
  0xde, 0x12, 0x33, 0x20, 0x0f, 0x02, 0x20, 0x2a, 0x09, 0xf7, 0xff, 0x1e,
  0x2b, 0xf7, 0xf1, 0x0f, 0x01, 0xdb, 0xdd, 0x06, 0xd8, 0xde, 0x25, 0x1a,
  0xd6, 0x28, 0x03, 0xf8, 0x18, 0xd7, 0x00, 0xef, 0x13, 0xe2, 0xed, 0xfb,
  0x28, 0x04, 0x1f, 0x12, 0x26, 0xdf, 0xe4, 0xe9, 0xec, 0xef, 0xd8, 0x24,
  0xe3, 0xfc, 0x19, 0x12, 0x25, 0x02, 0x0b, 0xf8, 0x26, 0x0e, 0x21, 0x03,
  0xd5, 0x19, 0xeb, 0x09, 0x26, 0x0e, 0xd6, 0xe6, 0xdb, 0xed, 0xd9, 0x0c,
  0x0b, 0xed, 0xf3, 0x02, 0xd6, 0xe2, 0x0a, 0xe2, 0xdd, 0xf1, 0xd7, 0x1c,
  0xe1, 0x21, 0xeb, 0x1b, 0x15, 0x03, 0xf0, 0xf2, 0xf8, 0x0a, 0xe7, 0xe4,
  0x71, 0x10, 0xb0, 0x36, 0x18, 0xc9, 0x60, 0x11, 0xc7, 0x50, 0x01, 0xd4,
  0x39, 0x20, 0xa7, 0x0d, 0xfb, 0xd6, 0x21, 0xe3, 0xb9, 0x26, 0xd7, 0xf6,
  0x37, 0xf3, 0xd1, 0x5c, 0xc7, 0x19, 0x2e, 0x21, 0xf5, 0x5c, 0x14, 0xef,
  0xf6, 0xfe, 0xbb, 0x49, 0x1a, 0x24, 0x0e, 0x0a, 0xe1, 0x77, 0xfc, 0x17,
  0x0d, 0x02, 0xde, 0x1c, 0x01, 0xf4, 0x03, 0xe8, 0x29, 0x61, 0xf3, 0x14,
  0xe5, 0xd3, 0xff, 0x19, 0xe4, 0x16, 0x27, 0xd2, 0x17, 0x2b, 0x15, 0x20,
  0x30, 0xdb, 0x1e, 0x45, 0x12, 0x2c, 0x15, 0xcd, 0x0f, 0x3b, 0x20, 0x06,
  0x52, 0x16, 0x0d, 0x2d, 0x22, 0xf7, 0xf2, 0x11, 0x0c, 0x3a, 0x0d, 0x27,
  0x02, 0x11, 0xc6, 0x43, 0x0a, 0x2e, 0xda, 0x3b, 0xbc, 0x25, 0xeb, 0xf9,
  0xd9, 0xfb, 0xfe, 0x13, 0xf6, 0xf4, 0xd3, 0x18, 0xd4, 0x20, 0xd6, 0xd8,
  0xba, 0x15, 0xc8, 0x3a, 0x05, 0xd2, 0xd4, 0xf6, 0x0c, 0x36, 0x03, 0x08,
  0xdb, 0x34, 0xf0, 0x33, 0xf2, 0x21, 0xaa, 0xf6, 0xf0, 0x2a, 0x0b, 0x09,
  0xe8, 0x15, 0x47, 0x16, 0xf5, 0x07, 0xf4, 0xfc, 0xf9, 0x30, 0xe7, 0xee,
  0xd7, 0xdc, 0x2e, 0x44, 0x1c, 0xe0, 0xe5, 0xd5, 0x19, 0x04, 0xe7, 0x08,
  0xc0, 0xf4, 0x1a, 0xf9, 0x25, 0x0b, 0xcd, 0x05, 0x35, 0x28, 0x2a, 0x2c,
  0xc8, 0x46, 0xee, 0x3c, 0xda, 0x2a, 0x07, 0x14, 0x0f, 0x51, 0xfe, 0x08,
  0xd3, 0x17, 0xf7, 0x54, 0xdc, 0x1c, 0xca, 0x38, 0xf4, 0x30, 0x13, 0x13,
  0xf7, 0x26, 0xf3, 0x17, 0x1b, 0xfb, 0xc7, 0xf5, 0xc5, 0x1c, 0x03, 0xe4,
  0xb2, 0x46, 0xcf, 0x37, 0x0e, 0x0e, 0xf6, 0xfb, 0x09, 0x2d, 0x30, 0xd5,
  0xee, 0xf4, 0xeb, 0x04, 0xe9, 0xdf, 0xcb, 0x09, 0xf1, 0x1d, 0x2b, 0xd7,
  0x0a, 0xfb, 0x02, 0x15, 0x07, 0x21, 0xc0, 0xee, 0xdc, 0x15, 0xf9, 0xe6,
  0xfe, 0xfb, 0xfe, 0x31, 0xff, 0x1d, 0xc7, 0xf2, 0x18, 0x00, 0xeb, 0x1a,
  0xcb, 0x05, 0x0b, 0xf9, 0x22, 0xfa, 0x15, 0x16, 0x16, 0x1e, 0xdf, 0xd7,
  0xe2, 0x1a, 0x24, 0xf8, 0x04, 0x20, 0x19, 0xed, 0xf2, 0x47, 0x10, 0xe0,
  0x34, 0xf8, 0x04, 0x50, 0xf8, 0xfe, 0x53, 0xe6, 0xc9, 0x26, 0x04, 0x09,
  0x29, 0x11, 0xbc, 0x3b, 0x15, 0x1b, 0x61, 0xfc, 0xcc, 0x5a, 0x0f, 0xfd,
  0x2d, 0xf3, 0xc5, 0x6d, 0x4b, 0x05, 0x5a, 0xdd, 0xec, 0x61, 0x49, 0x25,
  0x37, 0xc4, 0xef, 0x39, 0x1e, 0xec, 0x5e, 0xc5, 0xca, 0x1a, 0x12, 0x00,
  0x0c, 0xe7, 0xe6, 0x22, 0x1d, 0xe9, 0x53, 0xd3, 0x19, 0x2d, 0x02, 0xfb,
  0x07, 0xf4, 0xda, 0xed, 0x12, 0x0d, 0x29, 0xcd, 0x10, 0x28, 0x35, 0x31,
  0xed, 0x03, 0x01, 0xea, 0x1d, 0xe8, 0xda, 0xfb, 0x14, 0xda, 0x0b, 0x27,
  0xf3, 0x16, 0x26, 0xd6, 0x21, 0xe3, 0xfd, 0x14, 0xe2, 0xf7, 0x11, 0xf8,
  0x0b, 0x09, 0xdf, 0x00, 0x02, 0xda, 0xf1, 0x0b, 0xff, 0xf5, 0x1f, 0x14,
  0xf0, 0x01, 0x24, 0xde, 0x20, 0xf4, 0x1b, 0xd7, 0xe7, 0xfd, 0xed, 0xf6,
  0xd8, 0x19, 0x22, 0xfb, 0xf4, 0x20, 0x05, 0xda, 0xd4, 0xde, 0xec, 0xf0,
  0x1a, 0x28, 0xe2, 0x16, 0x0d, 0xd8, 0x01, 0x02, 0x0c, 0x1c, 0x19, 0xe9,
  0xf7, 0xd7, 0xff, 0x26, 0xf3, 0xe1, 0x29, 0x25, 0xe3, 0x14, 0x27, 0xdf,
  0x21, 0xd6, 0xe0, 0x22, 0x05, 0x1e, 0x4b, 0x29, 0xf2, 0x34, 0xd2, 0xf2,
  0xf1, 0xde, 0xc1, 0x47, 0x15, 0xe6, 0xf3, 0xe3, 0xe1, 0x54, 0xe6, 0xf1,
  0x36, 0x1f, 0xae, 0x53, 0x04, 0xf2, 0x37, 0x10, 0xa0, 0x3a, 0x1a, 0x07,
  0x21, 0x0a, 0xcc, 0x30, 0x07, 0x19, 0x30, 0xfd, 0xa1, 0x63, 0x2e, 0xe9,
  0x0a, 0xe1, 0xa3, 0x67, 0x07, 0x0f, 0x06, 0xc6, 0xe0, 0x74, 0x18, 0xe0,
  0x14, 0xc7, 0xe4, 0x44, 0xf6, 0x1f, 0xfc, 0xc3, 0xba, 0x41, 0x0d, 0x04,
  0x26, 0xce, 0xc6, 0xfa, 0x25, 0x07, 0x1e, 0x8a, 0xdd, 0x1f, 0xf6, 0x01,
  0xfc, 0xba, 0xef, 0xe4, 0x10, 0x27, 0x2a, 0xd1, 0x3c, 0x29, 0xfb, 0xeb,
  0xa7, 0x51, 0x14, 0x1f, 0x10, 0x40, 0xaf, 0x06, 0xf3, 0x27, 0x02, 0x4f,
  0xdd, 0x43, 0xec, 0x16, 0xe8, 0xf3, 0xc2, 0x28, 0x20, 0x18, 0x1c, 0x0b,
  0xf3, 0x0f, 0xec, 0x29, 0x08, 0x1d, 0xc7, 0x0a, 0x1a, 0x1f, 0x1c, 0x06,
  0xec, 0x1b, 0xf9, 0x1f, 0x09, 0xed, 0xbe, 0x37, 0xf9, 0xda, 0xe9, 0xfc,
  0xd1, 0x09, 0x32, 0xe7, 0x2a, 0x14, 0xb8, 0x3b, 0x2d, 0xed, 0x0e, 0x25,
  0xce, 0x39, 0x0d, 0x10, 0xea, 0xf7, 0xbb, 0x0f, 0x0c, 0x30, 0xfa, 0x05,
  0xbb, 0x22, 0x1e, 0xe5, 0x1d, 0xd6, 0xfb, 0xe8, 0x2e, 0x1a, 0xf8, 0x11,
  0xde, 0xdb, 0xe7, 0xf2, 0x18, 0x25, 0x56, 0xc7, 0xf8, 0x1c, 0xfd, 0xcd,
  0x13, 0x15, 0xc8, 0xe2, 0xec, 0xc8, 0xfe, 0x1c, 0xaa, 0xc4, 0xbf, 0xd3,
  0x22, 0xfc, 0xe7, 0xff, 0xdc, 0xf0, 0x14, 0x29, 0xe6, 0x11, 0xe5, 0xcd,
  0xce, 0x0e, 0x1a, 0xf0, 0xb1, 0xf1, 0xf7, 0x35, 0x39, 0x20, 0xd9, 0x10,
  0xf5, 0xff, 0x24, 0xe1, 0xba, 0xd4, 0xac, 0x16, 0x2e, 0x24, 0xa8, 0x01,
  0xbf, 0x2f, 0x28, 0xee, 0xc9, 0x2d, 0xed, 0x35, 0x39, 0x2d, 0xfc, 0xfa,
  0xd6, 0x3b, 0x35, 0x26, 0xd3, 0xe9, 0x0c, 0x40, 0x2b, 0x29, 0x20, 0x2d,
  0x11, 0x26, 0x4c, 0x32, 0xe2, 0xf8, 0xf1, 0xf9, 0x51, 0x01, 0xf9, 0xf2,
  0x13, 0x10, 0xe9, 0xf1, 0x16, 0xec, 0xec, 0xd5, 0xf5, 0xfa, 0xe0, 0x13,
  0xfd, 0xec, 0xe2, 0xfb, 0xee, 0x08, 0x25, 0x22, 0x21, 0x1a, 0xf1, 0x05,
  0xeb, 0xe9, 0x10, 0x01, 0xf1, 0x1d, 0x2a, 0x20, 0x17, 0x12, 0x0f, 0xe7,
  0xee, 0x0b, 0xf8, 0x28, 0x12, 0xd6, 0x16, 0x18, 0xdb, 0xf6, 0x00, 0xe8,
  0x01, 0xe8, 0xf6, 0xf8, 0x1f, 0x12, 0xfe, 0xd4, 0xdf, 0x24, 0xdd, 0xe1,
  0xde, 0xd8, 0xfc, 0xf5, 0x1b, 0xff, 0xd4, 0xe3, 0xe0, 0x01, 0x02, 0xf1,
  0x1f, 0x0d, 0xd5, 0xf0, 0xe4, 0x24, 0x04, 0x1c, 0xef, 0x23, 0xf3, 0xe6,
  0x0f, 0xd7, 0xec, 0xe0, 0xda, 0x00, 0x24, 0x51, 0xfb, 0x22, 0x07, 0x05,
  0x04, 0x48, 0xd3, 0x41, 0xf1, 0xe3, 0xeb, 0x19, 0x04, 0x1a, 0xf5, 0xe4,
  0x18, 0x3e, 0xf6, 0x3f, 0xd8, 0xd8, 0xbf, 0x44, 0xee, 0x1e, 0xd2, 0x0a,
  0xa8, 0x1f, 0x12, 0xf0, 0xe4, 0xd7, 0xae, 0x0c, 0x02, 0x0f, 0xd0, 0xf3,
  0xac, 0x54, 0x29, 0xe6, 0x04, 0x11, 0xd6, 0x2f, 0x1d, 0x13, 0xc2, 0x22,
  0x9f, 0x08, 0x34, 0xf6, 0x0a, 0xdc, 0xb1, 0x4a, 0x56, 0x23, 0xdc, 0x16,
  0xb1, 0x18, 0x54, 0xf9, 0x0f, 0x07, 0xdd, 0xea, 0x1e, 0x4b, 0x04, 0x1a,
  0xb5, 0x00, 0x61, 0x49, 0x0d, 0x10, 0xf4, 0x0c, 0x50, 0x1d, 0xe8, 0x23,
  0xca, 0x3b, 0x1a, 0x22, 0x1f, 0x14, 0xe6, 0x3e, 0xd2, 0x15, 0xf9, 0xfa,
  0x0b, 0x06, 0xf9, 0x33, 0x1d, 0x27, 0xe6, 0x31, 0xfe, 0xef, 0xdd, 0x26,
  0xf9, 0xf7, 0xd1, 0xf8, 0x17, 0xf4, 0xb1, 0x39, 0x07, 0x13, 0xd7, 0x19,
  0x9a, 0x0c, 0x29, 0x05, 0x0b, 0xca, 0xa3, 0x42, 0x30, 0x15, 0xcf, 0x04,
  0xe3, 0x3f, 0x26, 0xe7, 0x0d, 0xf7, 0xac, 0x1d, 0x51, 0xf3, 0x12, 0x20,
  0xbd, 0x22, 0x3c, 0xf5, 0xd6, 0x12, 0xcb, 0xe7, 0x22, 0x2e, 0xda, 0x18,
  0xc4, 0x12, 0x15, 0xe6, 0x1f, 0x22, 0xbb, 0xfc, 0xf9, 0x04, 0x28, 0x1f,
  0xce, 0xfc, 0x30, 0x09, 0xdb, 0x13, 0xc9, 0xfb, 0x21, 0x10, 0xfa, 0x46,
  0xcc, 0x4b, 0x25, 0x47, 0x10, 0x3e, 0xdf, 0x0f, 0xe9, 0x29, 0xe7, 0x03,
  0xdb, 0xf3, 0xd0, 0x24, 0xee, 0xf2, 0xf5, 0x2a, 0xfa, 0x52, 0x09, 0x04,
  0xfc, 0xf7, 0xd3, 0x39, 0x2e, 0x17, 0xfd, 0x0f, 0xc1, 0xfd, 0x20, 0x2b,
  0xf9, 0x2c, 0xed, 0x17, 0x0c, 0xfe, 0xda, 0x14, 0x02, 0xf0, 0x00, 0x10,
  0x02, 0x04, 0xf7, 0x3b, 0xed, 0x12, 0xde, 0x0d, 0x00, 0x0e, 0x28, 0xea,
  0xf8, 0xd1, 0xf6, 0xf5, 0xe4, 0xf7, 0xfe, 0xd6, 0x04, 0x08, 0x06, 0xdb,
  0x02, 0xd9, 0x09, 0xef, 0x21, 0xf2, 0xc1, 0xda, 0x11, 0x17, 0x22, 0xe5,
  0xeb, 0x24, 0xf6, 0x37, 0xf6, 0x08, 0xfc, 0x3f, 0xfe, 0xfc, 0x1a, 0xfd,
  0xbd, 0x3e, 0x1c, 0x03, 0xf6, 0x1a, 0xe9, 0xfd, 0x13, 0x18, 0x18, 0x36,
  0xdf, 0xfa, 0x25, 0x0f, 0x18, 0xf5, 0xf7, 0x1c, 0xf4, 0x26, 0x21, 0x23,
  0xdc, 0x1f, 0xd5, 0xf3, 0xe7, 0x21, 0xd3, 0x19, 0xfa, 0x10, 0x16, 0x1d,
  0xc5, 0x2c, 0xdf, 0x05, 0xe8, 0xf5, 0xdb, 0x05, 0x30, 0x23, 0x09, 0xfd,
  0xe6, 0x1f, 0x2b, 0xf6, 0xd7, 0xdc, 0xc8, 0xe7, 0xde, 0xe8, 0xf7, 0x1e,
  0xb9, 0x08, 0x12, 0xfc, 0x20, 0x22, 0xbe, 0xf8, 0xe6, 0x2e, 0xe8, 0x0e,
  0xbb, 0xe5, 0x13, 0x16, 0xf8, 0x1f, 0xec, 0xfd, 0xd4, 0x24, 0x24, 0x0c,
  0x0d, 0xe3, 0xf8, 0xe5, 0xd9, 0xf3, 0xf0, 0x0f, 0x16, 0x08, 0xd6, 0x1c,
  0xf0, 0xe5, 0x22, 0x13, 0x19, 0x23, 0xfb, 0xe2, 0x16, 0xe9, 0x01, 0xf3,
  0x08, 0xf1, 0xe0, 0x25, 0xee, 0xf4, 0xf8, 0xd9, 0xfc, 0x1a, 0xd9, 0x20,
  0xd6, 0xf2, 0x0a, 0xeb, 0x06, 0xf0, 0x1a, 0x17, 0x10, 0xf2, 0x1f, 0xf5,
  0x15, 0x0c, 0xde, 0xf3, 0xd6, 0x06, 0x0d, 0x22, 0x08, 0x01, 0xd7, 0xd9,
  0x24, 0x1d, 0xd5, 0xda, 0xf6, 0xda, 0x03, 0xeb, 0x14, 0x2b, 0xec, 0x10,
  0xfd, 0x06, 0xf2, 0x18, 0xf1, 0x03, 0xe1, 0x14, 0x12, 0xe8, 0xf8, 0x15,
  0xf8, 0xfc, 0x01, 0x0e, 0x13, 0xf4, 0xdf, 0xdd, 0xe2, 0xfe, 0x2b, 0xde,
  0xf7, 0x00, 0x12, 0x16, 0xeb, 0xec, 0xfd, 0x10, 0xe8, 0xd5, 0x26, 0xf4,
  0xf9, 0x0f, 0xd9, 0xd7, 0xf6, 0x0f, 0xd8, 0x27, 0x11, 0xf1, 0x0b, 0xdf,
  0xde, 0xf0, 0x02, 0x1d, 0xd5, 0xe3, 0xde, 0x08, 0xe1, 0x0f, 0x2b, 0xd9,
  0xea, 0x0d, 0x2c, 0x10, 0x06, 0x1b, 0x15, 0x28, 0xdb, 0xd8, 0x12, 0xf8,
  0x26, 0xd7, 0xd9, 0x00, 0x0a, 0x24, 0xf9, 0x17, 0xf3, 0xd8, 0xd9, 0x24,
  0x0a, 0xdd, 0x23, 0xd5, 0xec, 0x15, 0x01, 0xe8, 0xff, 0x27, 0xea, 0x06,
  0xfe, 0xd5, 0x08, 0x17, 0xf0, 0xf4, 0x1d, 0x1a, 0x1e, 0x14, 0xe8, 0xda,
  0x19, 0x07, 0x05, 0xf0, 0xf6, 0xf9, 0xfc, 0x01, 0x12, 0x13, 0xdb, 0xd5,
  0x0d, 0xda, 0xe3, 0x17, 0xe1, 0x23, 0x1c, 0xe0, 0xd8, 0xf7, 0xee, 0xe1,
  0x0f, 0xf9, 0xef, 0xe1, 0xfe, 0xf5, 0xf7, 0xde, 0x2a, 0x0d, 0x17, 0xf8,
  0xf8, 0xd6, 0x1a, 0xf3, 0x0f, 0x13, 0x22, 0xe1, 0x00, 0x20, 0x18, 0x02,
  0xda, 0x11, 0x1c, 0x1c, 0x1b, 0xe2, 0xd5, 0xf6, 0xe5, 0x12, 0x20, 0xff,
  0xd5, 0xf8, 0xf4, 0xe1, 0x19, 0x06, 0xf3, 0xd4, 0xfa, 0xd9, 0x25, 0x22,
  0x23, 0x0e, 0xe6, 0x20, 0x00, 0xea, 0x09, 0xd5, 0x12, 0xd5, 0xf2, 0xe4,
  0xb8, 0xe5, 0x4d, 0xbf, 0x30, 0x35, 0xe0, 0xf9, 0x61, 0xe6, 0x4b, 0x42,
  0xc0, 0xe6, 0x75, 0xea, 0x4c, 0x1c, 0xe6, 0x13, 0x3d, 0xe6, 0x3a, 0x29,
  0x3f, 0xf7, 0x57, 0x07, 0x2b, 0x20, 0x04, 0x00, 0x43, 0xce, 0x58, 0x2e,
  0x18, 0x11, 0xf7, 0xea, 0x5f, 0x25, 0x5f, 0x19, 0x0f, 0xfc, 0x2e, 0x07,
  0x25, 0x19, 0xff, 0xb4, 0x1e, 0x2b, 0x2d, 0x0f, 0xb1, 0xbb, 0x27, 0xe1,
  0x37, 0x22, 0xde, 0xf6, 0x29, 0x0e, 0x3c, 0x25, 0xd5, 0x00, 0x15, 0xe9,
  0xf1, 0x27, 0xd1, 0xf1, 0x10, 0xf9, 0x13, 0x26, 0xc1, 0xef, 0xef, 0xe8,
  0x01, 0x37, 0xca, 0xd9, 0x14, 0xcf, 0xde, 0x05, 0xe3, 0xda, 0xd6, 0xd5,
  0xdd, 0x2c, 0x1c, 0x07, 0xe6, 0xd9, 0x26, 0x1e, 0x25, 0xea, 0x23, 0x28,
  0x03, 0x00, 0xef, 0xdf, 0x14, 0x0a, 0xd6, 0x13, 0xd7, 0xd8, 0x03, 0x25,
  0x14, 0x2b, 0x16, 0x09, 0xf9, 0x1c, 0x2a, 0xed, 0x01, 0x0a, 0x0a, 0xf9,
  0xde, 0xf9, 0xde, 0x01, 0xf4, 0x08, 0xda, 0xf1, 0x21, 0x13, 0xe6, 0x15,
  0xfe, 0xe0, 0xf6, 0x22, 0xe5, 0x21, 0xe2, 0x19, 0x1b, 0x07, 0x1f, 0xd6,
  0xfb, 0x07, 0xd4, 0xf8, 0x0f, 0x1e, 0xf5, 0xfc, 0x0c, 0x09, 0xd7, 0xdd,
  0xe6, 0xde, 0xe8, 0x25, 0xfe, 0xd9, 0xee, 0xd9, 0xe2, 0xf6, 0xed, 0xd5,
  0x9f, 0xf1, 0x71, 0xc8, 0x15, 0x47, 0xbb, 0x06, 0x3f, 0xa9, 0x50, 0x41,
  0xe8, 0x2c, 0x56, 0xed, 0x1f, 0x0e, 0xe7, 0xee, 0x5e, 0x9c, 0x3c, 0x00,
  0x1a, 0xeb, 0x4d, 0xec, 0x19, 0x12, 0x11, 0xf8, 0x73, 0x98, 0x48, 0x0b,
  0x11, 0xee, 0x6a, 0x93, 0x27, 0x27, 0x10, 0x08, 0x47, 0xd3, 0x09, 0x19,
  0x59, 0x36, 0xf2, 0xe2, 0x01, 0xf3, 0x1b, 0x58, 0x23, 0xc6, 0x26, 0x1e,
  0x12, 0x62, 0xd3, 0xcf, 0x05, 0x26, 0x0a, 0x59, 0xf6, 0xe6, 0x15, 0x16,
  0x32, 0x57, 0xea, 0xcc, 0x0b, 0xfc, 0x2c, 0x22, 0xad, 0xf9, 0x22, 0x04,
  0xfa, 0x5f, 0xc4, 0xf9, 0x1b, 0x04, 0x11, 0xdf, 0x02, 0xff, 0x10, 0xeb,
  0x1f, 0xd9, 0x0a, 0xeb, 0xfa, 0x16, 0x20, 0x25, 0x2c, 0xdb, 0xff, 0x10,
  0x08, 0x0b, 0xf5, 0xf8, 0x09, 0xde, 0x05, 0xff, 0x08, 0xfa, 0xe0, 0xf1,
  0xeb, 0x0d, 0x15, 0xf6, 0xf1, 0xdf, 0x18, 0xe1, 0xeb, 0x20, 0x20, 0x26,
  0xdc, 0x1f, 0xe4, 0x02, 0x01, 0xe7, 0xf5, 0xe2, 0x24, 0xeb, 0xe1, 0xf8,
  0xe1, 0x1b, 0xf7, 0xf2, 0xd8, 0xfc, 0xe7, 0xfc, 0xff, 0x27, 0xf8, 0xe3,
  0xf9, 0x05, 0xec, 0x26, 0x27, 0xf9, 0xde, 0xf1, 0x15, 0xe8, 0xd6, 0xf9,
  0xee, 0xed, 0xec, 0x13, 0x2b, 0x03, 0x04, 0xd8, 0x1f, 0x10, 0x10, 0xe9,
  0x6c, 0xee, 0xd2, 0xee, 0x0c, 0xb5, 0x1b, 0xc4, 0x08, 0x24, 0xf0, 0xe7,
  0x14, 0xf5, 0xe4, 0xf5, 0x1a, 0xfc, 0x42, 0x00, 0xeb, 0x0b, 0x2b, 0xf9,
  0x0a, 0xe5, 0xd2, 0x01, 0xfa, 0x21, 0x45, 0xf5, 0x1c, 0x4c, 0xe4, 0x08,
  0x51, 0xfd, 0x01, 0x17, 0xec, 0x13, 0x40, 0xe3, 0xe3, 0x4c, 0x17, 0x25,
  0x43, 0xb2, 0xc7, 0x3f, 0xfa, 0x00, 0xfa, 0xd6, 0xe6, 0x1d, 0x13, 0x37,
  0x44, 0xbb, 0x19, 0x2e, 0x1f, 0x33, 0x2a, 0xc9, 0x27, 0x26, 0xf9, 0x0b,
  0x42, 0xe0, 0xda, 0x33, 0xe8, 0x34, 0x2d, 0xf4, 0x24, 0x2b, 0x0c, 0x2c,
  0x1e, 0xf1, 0xfd, 0x31, 0x37, 0x21, 0x19, 0xec, 0x39, 0xef, 0x36, 0xf0,
  0xeb, 0xe8, 0x47, 0xf6, 0x28, 0xfe, 0xfb, 0x1c, 0x19, 0xf3, 0x39, 0xee,
  0x1b, 0xd5, 0x4f, 0xeb, 0x32, 0x2a, 0x1e, 0xec, 0x1f, 0xf6, 0x43, 0x00,
  0x54, 0x00, 0xf3, 0x30, 0x43, 0x30, 0x60, 0xc8, 0x06, 0x11, 0x30, 0x09,
  0x7f, 0x01, 0xe5, 0x23, 0x39, 0x06, 0x70, 0xad, 0xda, 0x22, 0x03, 0x1c,
  0x2c, 0xcc, 0xd1, 0x31, 0x31, 0xf2, 0x3a, 0xca, 0xce, 0x0f, 0xf0, 0x15,
  0x5a, 0x0c, 0xb3, 0xf2, 0x10, 0x1d, 0x30, 0xd8, 0xc4, 0x12, 0x0a, 0xf7,
  0x55, 0x12, 0xbc, 0xd7, 0x05, 0x23, 0x52, 0xe8, 0xda, 0xeb, 0xe3, 0xdb,
  0xe0, 0x22, 0xfe, 0xfe, 0xe9, 0x1d, 0x1b, 0x14, 0xf0, 0xf1, 0xdc, 0xe1,
  0x0d, 0xd9, 0xf9, 0xdd, 0xeb, 0xf3, 0x24, 0x03, 0xd9, 0x05, 0xf6, 0xd7,
  0x1b, 0xf0, 0x1d, 0x02, 0x04, 0xf4, 0xf9, 0x28, 0xd9, 0x09, 0xde, 0xd4,
  0x03, 0xf7, 0x28, 0xe9, 0xfd, 0xed, 0xd7, 0xdb, 0xdb, 0x0d, 0xef, 0x0b,
  0xf1, 0xdd, 0x21, 0x01, 0xf8, 0xec, 0x14, 0xed, 0x0b, 0x08, 0xf5, 0xda,
  0xf0, 0x10, 0xd9, 0x1a, 0xea, 0x08, 0x1a, 0x1a, 0x0e, 0x0d, 0x06, 0xf6,
  0xe2, 0x28, 0x2a, 0x23, 0x1b, 0x0e, 0xf5, 0xf3, 0xee, 0xe1, 0xe4, 0x00,
  0x21, 0xe6, 0xf7, 0x12, 0xdc, 0x07, 0x8a, 0x1c, 0x35, 0x1a, 0x2b, 0x5d,
  0xda, 0x19, 0x14, 0x42, 0x02, 0x5b, 0xec, 0x26, 0x29, 0x13, 0x31, 0x56,
  0xf8, 0x18, 0x2b, 0x20, 0x29, 0x0b, 0xe8, 0xfe, 0xf5, 0x38, 0x38, 0xed,
  0xfc, 0xf4, 0x1e, 0x17, 0x45, 0x07, 0xf6, 0x23, 0xe2, 0xe3, 0x0c, 0xf1,
  0x00, 0x03, 0xf7, 0x04, 0x50, 0x16, 0xf2, 0xf2, 0xf5, 0x1b, 0x0c, 0xe3,
  0x20, 0x19, 0xc4, 0x24, 0x26, 0xd0, 0x17, 0x09, 0xf4, 0x10, 0xe9, 0xe3,
  0xdb, 0x25, 0x0c, 0xda, 0x02, 0xd1, 0xf9, 0x08, 0xd9, 0x09, 0x28, 0xe6,
  0xfa, 0xd2, 0xc8, 0x16, 0xd4, 0xdd, 0xb3, 0xcd, 0xea, 0xde, 0xf2, 0xde,
  0x3a, 0xfd, 0xff, 0xff, 0x04, 0x00, 0x00, 0x00, 0x80, 0x00, 0x00, 0x00,
  0x00, 0x00, 0x00, 0x00, 0x4b, 0x08, 0x00, 0x00, 0x00, 0x00, 0x00, 0x00,
  0xfe, 0xfd, 0xff, 0xff, 0x56, 0xfb, 0xff, 0xff, 0xc9, 0xfe, 0xff, 0xff,
  0x37, 0x0e, 0x00, 0x00, 0x00, 0x00, 0x00, 0x00, 0x3e, 0x15, 0x00, 0x00,
  0xb6, 0x08, 0x00, 0x00, 0x84, 0x00, 0x00, 0x00, 0xfc, 0x06, 0x00, 0x00,
  0x79, 0xff, 0xff, 0xff, 0x1e, 0x05, 0x00, 0x00, 0x19, 0x00, 0x00, 0x00,
  0x5c, 0x11, 0x00, 0x00, 0x00, 0x00, 0x00, 0x00, 0x17, 0x18, 0x00, 0x00,
  0xee, 0x06, 0x00, 0x00, 0x77, 0xfc, 0xff, 0xff, 0x66, 0xfd, 0xff, 0xff,
  0x00, 0x00, 0x00, 0x00, 0x00, 0x00, 0x00, 0x00, 0x00, 0x00, 0x00, 0x00,
  0x7a, 0xee, 0xff, 0xff, 0x00, 0x00, 0x00, 0x00, 0xb7, 0xf7, 0xff, 0xff,
  0x00, 0x00, 0x00, 0x00, 0xd5, 0x0c, 0x00, 0x00, 0x1b, 0xfc, 0xff, 0xff,
  0x00, 0x00, 0x00, 0x00, 0x3d, 0xf8, 0xff, 0xff, 0xc6, 0xfd, 0xff, 0xff,
  0x04, 0x00, 0x00, 0x00, 0x00, 0x01, 0x00, 0x00, 0xee, 0x13, 0xff, 0xe9,
  0xf8, 0x02, 0xf1, 0x09, 0x14, 0xfd, 0x0f, 0xeb, 0xe5, 0x13, 0xda, 0xeb,
  0x17, 0xf0, 0xe8, 0xf2, 0xed, 0x27, 0x1d, 0xf5, 0xe3, 0xe4, 0xe0, 0x0f,
  0xed, 0x1b, 0x0b, 0xde, 0xe7, 0xf5, 0x0d, 0xe4, 0xe6, 0xfd, 0x06, 0x04,
  0x10, 0xff, 0xfb, 0x13, 0xea, 0x08, 0x12, 0x0f, 0x0e, 0xe9, 0x17, 0xd9,
  0xe4, 0xd9, 0x03, 0xee, 0x23, 0xe4, 0x09, 0x0d, 0xde, 0xd8, 0x23, 0xd6,
  0xf4, 0x22, 0x17, 0x19, 0xe3, 0xe5, 0xfa, 0x01, 0xdf, 0xe4, 0xfb, 0xfb,
  0x19, 0x16, 0x06, 0x20, 0x07, 0xd8, 0xe6, 0xfe, 0xfc, 0xea, 0x1f, 0xec,
  0x18, 0xfe, 0xeb, 0x00, 0xfa, 0x16, 0xd9, 0xe8, 0xfd, 0xef, 0x16, 0xf1,
  0xe1, 0x1f, 0x15, 0x20, 0x17, 0x2b, 0x53, 0x16, 0xe4, 0x22, 0x46, 0xe9,
  0x05, 0x21, 0x3e, 0x30, 0x39, 0x18, 0x08, 0x14, 0xfc, 0x22, 0xd4, 0x06,
  0xf5, 0xf8, 0xee, 0x3f, 0xf0, 0x10, 0xea, 0x14, 0x27, 0xf1, 0xb9, 0xfc,
  0x30, 0xf9, 0xfa, 0x2b, 0xdb, 0x36, 0xc7, 0xde, 0xed, 0xdc, 0xb6, 0x0d,
  0xdb, 0x1a, 0x27, 0x03, 0xfd, 0xe3, 0xd1, 0xf9, 0x44, 0x3a, 0x1a, 0xfa,
  0x0c, 0xd5, 0x18, 0x04, 0x1b, 0x25, 0xeb, 0x0f, 0xe7, 0xe4, 0xdc, 0xdc,
  0xf6, 0xf1, 0xd6, 0xfa, 0xff, 0x0d, 0xf9, 0x1d, 0xfe, 0x12, 0xfa, 0xdd,
  0xe1, 0x09, 0x12, 0x1a, 0x05, 0x17, 0x0d, 0xfc, 0xdc, 0x13, 0x06, 0xe1,
  0xde, 0xe0, 0x5f, 0xf8, 0x39, 0x24, 0xff, 0x08, 0xfe, 0x0e, 0x08, 0x38,
  0xe9, 0x50, 0x33, 0xfa, 0x01, 0x08, 0x1d, 0xe7, 0xc8, 0x26, 0xb9, 0x0f,
  0x22, 0xc5, 0x22, 0xb2, 0x1c, 0xe5, 0x26, 0xda, 0x3f, 0x10, 0xe7, 0x1a,
  0xf2, 0xc0, 0xd1, 0x1a, 0x13, 0xe0, 0x15, 0xbc, 0x1d, 0xee, 0xdc, 0xfc,
  0xf8, 0xea, 0xf0, 0xdc, 0x52, 0xda, 0x7f, 0xf9, 0x0f, 0x4a, 0x23, 0x37,
  0xd2, 0xfe, 0xff, 0xff, 0x04, 0x00, 0x00, 0x00, 0x20, 0x00, 0x00, 0x00,
  0x00, 0x00, 0x00, 0x00, 0xc5, 0xff, 0xff, 0xff, 0x94, 0xff, 0xff, 0xff,
  0xfa, 0xff, 0xff, 0xff, 0x39, 0x00, 0x00, 0x00, 0x77, 0xff, 0xff, 0xff,
  0xe7, 0x01, 0x00, 0x00, 0x75, 0x01, 0x00, 0x00, 0xfe, 0xfe, 0xff, 0xff,
  0x04, 0x00, 0x00, 0x00, 0x20, 0x00, 0x00, 0x00, 0x34, 0x2f, 0xea, 0x96,
  0x4d, 0xee, 0xb6, 0x32, 0xf0, 0xe8, 0x11, 0x35, 0x28, 0x1f, 0xe1, 0xdb,
  0x11, 0xe7, 0xe2, 0x14, 0x81, 0xdf, 0x46, 0xdd, 0xe8, 0x0f, 0xca, 0x33,
  0xab, 0xda, 0xa4, 0x2c, 0x2a, 0xff, 0xff, 0xff, 0x04, 0x00, 0x00, 0x00,
  0x10, 0x00, 0x00, 0x00, 0x41, 0x00, 0x00, 0x00, 0x74, 0xfe, 0xff, 0xff,
  0xea, 0x00, 0x00, 0x00, 0x64, 0x00, 0x00, 0x00, 0xb8, 0xf7, 0xff, 0xff,
  0xbc, 0xf7, 0xff, 0xff, 0x0f, 0x00, 0x00, 0x00, 0x4d, 0x4c, 0x49, 0x52,
  0x20, 0x43, 0x6f, 0x6e, 0x76, 0x65, 0x72, 0x74, 0x65, 0x64, 0x2e, 0x00,
  0x01, 0x00, 0x00, 0x00, 0x14, 0x00, 0x00, 0x00, 0x00, 0x00, 0x0e, 0x00,
  0x18, 0x00, 0x14, 0x00, 0x10, 0x00, 0x0c, 0x00, 0x08, 0x00, 0x04, 0x00,
  0x0e, 0x00, 0x00, 0x00, 0x14, 0x00, 0x00, 0x00, 0x1c, 0x00, 0x00, 0x00,
  0x7c, 0x01, 0x00, 0x00, 0x80, 0x01, 0x00, 0x00, 0x84, 0x01, 0x00, 0x00,
  0x04, 0x00, 0x00, 0x00, 0x6d, 0x61, 0x69, 0x6e, 0x00, 0x00, 0x00, 0x00,
  0x06, 0x00, 0x00, 0x00, 0x44, 0x01, 0x00, 0x00, 0xf4, 0x00, 0x00, 0x00,
  0xa8, 0x00, 0x00, 0x00, 0x70, 0x00, 0x00, 0x00, 0x34, 0x00, 0x00, 0x00,
  0x10, 0x00, 0x00, 0x00, 0x00, 0x00, 0x0a, 0x00, 0x10, 0x00, 0x0c, 0x00,
  0x08, 0x00, 0x04, 0x00, 0x0a, 0x00, 0x00, 0x00, 0x0c, 0x00, 0x00, 0x00,
  0x10, 0x00, 0x00, 0x00, 0x03, 0x00, 0x00, 0x00, 0x01, 0x00, 0x00, 0x00,
  0x0c, 0x00, 0x00, 0x00, 0x01, 0x00, 0x00, 0x00, 0x0b, 0x00, 0x00, 0x00,
  0x5a, 0xff, 0xff, 0xff, 0x1c, 0x00, 0x00, 0x00, 0x00, 0x00, 0x00, 0x09,
  0x1c, 0x00, 0x00, 0x00, 0x20, 0x00, 0x00, 0x00, 0x02, 0x00, 0x00, 0x00,
  0x00, 0x00, 0x06, 0x00, 0x08, 0x00, 0x04, 0x00, 0x06, 0x00, 0x00, 0x00,
  0x00, 0x00, 0x80, 0x3f, 0x01, 0x00, 0x00, 0x00, 0x0b, 0x00, 0x00, 0x00,
  0x01, 0x00, 0x00, 0x00, 0x0a, 0x00, 0x00, 0x00, 0x92, 0xff, 0xff, 0xff,
  0x14, 0x00, 0x00, 0x00, 0x00, 0x00, 0x00, 0x08, 0x10, 0x00, 0x00, 0x00,
  0x14, 0x00, 0x00, 0x00, 0x01, 0x00, 0x00, 0x00, 0xa8, 0xf8, 0xff, 0xff,
  0x01, 0x00, 0x00, 0x00, 0x0a, 0x00, 0x00, 0x00, 0x03, 0x00, 0x00, 0x00,
  0x09, 0x00, 0x00, 0x00, 0x02, 0x00, 0x00, 0x00, 0x01, 0x00, 0x00, 0x00,
  0xc6, 0xff, 0xff, 0xff, 0x14, 0x00, 0x00, 0x00, 0x00, 0x00, 0x00, 0x08,
  0x14, 0x00, 0x00, 0x00, 0x18, 0x00, 0x00, 0x00, 0x01, 0x00, 0x00, 0x00,
  0xb6, 0xff, 0xff, 0xff, 0x00, 0x00, 0x00, 0x01, 0x01, 0x00, 0x00, 0x00,
  0x09, 0x00, 0x00, 0x00, 0x03, 0x00, 0x00, 0x00, 0x08, 0x00, 0x00, 0x00,
  0x04, 0x00, 0x00, 0x00, 0x03, 0x00, 0x00, 0x00, 0x00, 0x00, 0x0e, 0x00,
  0x1a, 0x00, 0x14, 0x00, 0x10, 0x00, 0x0c, 0x00, 0x0b, 0x00, 0x04, 0x00,
  0x0e, 0x00, 0x00, 0x00, 0x1c, 0x00, 0x00, 0x00, 0x00, 0x00, 0x00, 0x08,
  0x1c, 0x00, 0x00, 0x00, 0x20, 0x00, 0x00, 0x00, 0x01, 0x00, 0x00, 0x00,
  0x00, 0x00, 0x06, 0x00, 0x08, 0x00, 0x07, 0x00, 0x06, 0x00, 0x00, 0x00,
  0x00, 0x00, 0x00, 0x01, 0x01, 0x00, 0x00, 0x00, 0x08, 0x00, 0x00, 0x00,
  0x03, 0x00, 0x00, 0x00, 0x07, 0x00, 0x00, 0x00, 0x06, 0x00, 0x00, 0x00,
  0x05, 0x00, 0x00, 0x00, 0x00, 0x00, 0x0a, 0x00, 0x0c, 0x00, 0x00, 0x00,
  0x08, 0x00, 0x04, 0x00, 0x0a, 0x00, 0x00, 0x00, 0x08, 0x00, 0x00, 0x00,
  0x0c, 0x00, 0x00, 0x00, 0x01, 0x00, 0x00, 0x00, 0x07, 0x00, 0x00, 0x00,
  0x01, 0x00, 0x00, 0x00, 0x00, 0x00, 0x00, 0x00, 0x01, 0x00, 0x00, 0x00,
  0x0c, 0x00, 0x00, 0x00, 0x01, 0x00, 0x00, 0x00, 0x00, 0x00, 0x00, 0x00,
  0x0d, 0x00, 0x00, 0x00, 0x50, 0x06, 0x00, 0x00, 0xb4, 0x05, 0x00, 0x00,
  0x2c, 0x05, 0x00, 0x00, 0xb0, 0x04, 0x00, 0x00, 0x44, 0x04, 0x00, 0x00,
  0xd0, 0x03, 0x00, 0x00, 0x64, 0x03, 0x00, 0x00, 0xf0, 0x02, 0x00, 0x00,
  0x2c, 0x02, 0x00, 0x00, 0x78, 0x01, 0x00, 0x00, 0xdc, 0x00, 0x00, 0x00,
  0x60, 0x00, 0x00, 0x00, 0x04, 0x00, 0x00, 0x00, 0xfa, 0xf9, 0xff, 0xff,
  0x00, 0x00, 0x00, 0x01, 0x14, 0x00, 0x00, 0x00, 0x1c, 0x00, 0x00, 0x00,
  0x1c, 0x00, 0x00, 0x00, 0x0d, 0x00, 0x00, 0x00, 0x34, 0x00, 0x00, 0x00,
  0x02, 0x00, 0x00, 0x00, 0xff, 0xff, 0xff, 0xff, 0x04, 0x00, 0x00, 0x00,
  0xe4, 0xf9, 0xff, 0xff, 0x19, 0x00, 0x00, 0x00, 0x53, 0x74, 0x61, 0x74,
  0x65, 0x66, 0x75, 0x6c, 0x50, 0x61, 0x72, 0x74, 0x69, 0x74, 0x69, 0x6f,
  0x6e, 0x65, 0x64, 0x43, 0x61, 0x6c, 0x6c, 0x3a, 0x30, 0x00, 0x00, 0x00,
  0x02, 0x00, 0x00, 0x00, 0x01, 0x00, 0x00, 0x00, 0x04, 0x00, 0x00, 0x00,
  0x96, 0xfd, 0xff, 0xff, 0x00, 0x00, 0x00, 0x01, 0x18, 0x00, 0x00, 0x00,
  0x20, 0x00, 0x00, 0x00, 0x3c, 0x00, 0x00, 0x00, 0x0c, 0x00, 0x00, 0x00,
  0x00, 0x00, 0x00, 0x09, 0x50, 0x00, 0x00, 0x00, 0x02, 0x00, 0x00, 0x00,
  0xff, 0xff, 0xff, 0xff, 0x04, 0x00, 0x00, 0x00, 0xe4, 0xfa, 0xff, 0xff,
  0x08, 0x00, 0x00, 0x00, 0x10, 0x00, 0x00, 0x00, 0x01, 0x00, 0x00, 0x00,
  0x80, 0xff, 0xff, 0xff, 0xff, 0xff, 0xff, 0xff, 0x01, 0x00, 0x00, 0x00,
  0x00, 0x00, 0x80, 0x3b, 0x1a, 0x00, 0x00, 0x00, 0x53, 0x74, 0x61, 0x74,
  0x65, 0x66, 0x75, 0x6c, 0x50, 0x61, 0x72, 0x74, 0x69, 0x74, 0x69, 0x6f,
  0x6e, 0x65, 0x64, 0x43, 0x61, 0x6c, 0x6c, 0x3a, 0x30, 0x31, 0x00, 0x00,
  0x02, 0x00, 0x00, 0x00, 0x01, 0x00, 0x00, 0x00, 0x04, 0x00, 0x00, 0x00,
  0x0e, 0xfe, 0xff, 0xff, 0x00, 0x00, 0x00, 0x01, 0x18, 0x00, 0x00, 0x00,
  0x20, 0x00, 0x00, 0x00, 0x40, 0x00, 0x00, 0x00, 0x0b, 0x00, 0x00, 0x00,
  0x00, 0x00, 0x00, 0x09, 0x70, 0x00, 0x00, 0x00, 0x02, 0x00, 0x00, 0x00,
  0xff, 0xff, 0xff, 0xff, 0x04, 0x00, 0x00, 0x00, 0x5c, 0xfb, 0xff, 0xff,
  0x08, 0x00, 0x00, 0x00, 0x14, 0x00, 0x00, 0x00, 0x01, 0x00, 0x00, 0x00,
  0x17, 0x00, 0x00, 0x00, 0x00, 0x00, 0x00, 0x00, 0x00, 0x00, 0x00, 0x00,
  0x01, 0x00, 0x00, 0x00, 0xc1, 0xb7, 0x01, 0x3e, 0x34, 0x00, 0x00, 0x00,
  0x73, 0x65, 0x71, 0x75, 0x65, 0x6e, 0x74, 0x69, 0x61, 0x6c, 0x2f, 0x64,
  0x65, 0x6e, 0x73, 0x65, 0x5f, 0x32, 0x2f, 0x4d, 0x61, 0x74, 0x4d, 0x75,
  0x6c, 0x3b, 0x73, 0x65, 0x71, 0x75, 0x65, 0x6e, 0x74, 0x69, 0x61, 0x6c,
  0x2f, 0x64, 0x65, 0x6e, 0x73, 0x65, 0x5f, 0x32, 0x2f, 0x42, 0x69, 0x61,
  0x73, 0x41, 0x64, 0x64, 0x00, 0x00, 0x00, 0x00, 0x02, 0x00, 0x00, 0x00,
  0x01, 0x00, 0x00, 0x00, 0x04, 0x00, 0x00, 0x00, 0xa6, 0xfe, 0xff, 0xff,
  0x00, 0x00, 0x00, 0x01, 0x18, 0x00, 0x00, 0x00, 0x20, 0x00, 0x00, 0x00,
  0x40, 0x00, 0x00, 0x00, 0x0a, 0x00, 0x00, 0x00, 0x00, 0x00, 0x00, 0x09,
  0x88, 0x00, 0x00, 0x00, 0x02, 0x00, 0x00, 0x00, 0xff, 0xff, 0xff, 0xff,
  0x08, 0x00, 0x00, 0x00, 0xf4, 0xfb, 0xff, 0xff, 0x08, 0x00, 0x00, 0x00,
  0x14, 0x00, 0x00, 0x00, 0x01, 0x00, 0x00, 0x00, 0x80, 0xff, 0xff, 0xff,
  0xff, 0xff, 0xff, 0xff, 0x00, 0x00, 0x00, 0x00, 0x01, 0x00, 0x00, 0x00,
  0xa7, 0xb7, 0x6a, 0x3d, 0x4c, 0x00, 0x00, 0x00, 0x73, 0x65, 0x71, 0x75,
  0x65, 0x6e, 0x74, 0x69, 0x61, 0x6c, 0x2f, 0x64, 0x65, 0x6e, 0x73, 0x65,
  0x5f, 0x31, 0x2f, 0x4d, 0x61, 0x74, 0x4d, 0x75, 0x6c, 0x3b, 0x73, 0x65,
  0x71, 0x75, 0x65, 0x6e, 0x74, 0x69, 0x61, 0x6c, 0x2f, 0x64, 0x65, 0x6e,
  0x73, 0x65, 0x5f, 0x31, 0x2f, 0x52, 0x65, 0x6c, 0x75, 0x3b, 0x73, 0x65,
  0x71, 0x75, 0x65, 0x6e, 0x74, 0x69, 0x61, 0x6c, 0x2f, 0x64, 0x65, 0x6e,
  0x73, 0x65, 0x5f, 0x31, 0x2f, 0x42, 0x69, 0x61, 0x73, 0x41, 0x64, 0x64,
  0x00, 0x00, 0x00, 0x00, 0x02, 0x00, 0x00, 0x00, 0x01, 0x00, 0x00, 0x00,
  0x08, 0x00, 0x00, 0x00, 0x56, 0xff, 0xff, 0xff, 0x00, 0x00, 0x00, 0x01,
  0x18, 0x00, 0x00, 0x00, 0x20, 0x00, 0x00, 0x00, 0x40, 0x00, 0x00, 0x00,
  0x09, 0x00, 0x00, 0x00, 0x00, 0x00, 0x00, 0x09, 0x80, 0x00, 0x00, 0x00,
  0x02, 0x00, 0x00, 0x00, 0xff, 0xff, 0xff, 0xff, 0x20, 0x00, 0x00, 0x00,
  0xa4, 0xfc, 0xff, 0xff, 0x08, 0x00, 0x00, 0x00, 0x14, 0x00, 0x00, 0x00,
  0x01, 0x00, 0x00, 0x00, 0x80, 0xff, 0xff, 0xff, 0xff, 0xff, 0xff, 0xff,
  0x00, 0x00, 0x00, 0x00, 0x01, 0x00, 0x00, 0x00, 0x8a, 0xbf, 0xb0, 0x3c,
  0x46, 0x00, 0x00, 0x00, 0x73, 0x65, 0x71, 0x75, 0x65, 0x6e, 0x74, 0x69,
  0x61, 0x6c, 0x2f, 0x64, 0x65, 0x6e, 0x73, 0x65, 0x2f, 0x4d, 0x61, 0x74,
  0x4d, 0x75, 0x6c, 0x3b, 0x73, 0x65, 0x71, 0x75, 0x65, 0x6e, 0x74, 0x69,
  0x61, 0x6c, 0x2f, 0x64, 0x65, 0x6e, 0x73, 0x65, 0x2f, 0x52, 0x65, 0x6c,
  0x75, 0x3b, 0x73, 0x65, 0x71, 0x75, 0x65, 0x6e, 0x74, 0x69, 0x61, 0x6c,
  0x2f, 0x64, 0x65, 0x6e, 0x73, 0x65, 0x2f, 0x42, 0x69, 0x61, 0x73, 0x41,
  0x64, 0x64, 0x00, 0x00, 0x02, 0x00, 0x00, 0x00, 0x01, 0x00, 0x00, 0x00,
  0x20, 0x00, 0x00, 0x00, 0x00, 0x00, 0x16, 0x00, 0x20, 0x00, 0x1c, 0x00,
  0x1b, 0x00, 0x14, 0x00, 0x10, 0x00, 0x0c, 0x00, 0x00, 0x00, 0x00, 0x00,
  0x08, 0x00, 0x07, 0x00, 0x16, 0x00, 0x00, 0x00, 0x00, 0x00, 0x00, 0x01,
  0x18, 0x00, 0x00, 0x00, 0x20, 0x00, 0x00, 0x00, 0x40, 0x00, 0x00, 0x00,
  0x08, 0x00, 0x00, 0x00, 0x00, 0x00, 0x00, 0x09, 0x48, 0x00, 0x00, 0x00,
  0x02, 0x00, 0x00, 0x00, 0xff, 0xff, 0xff, 0xff, 0x5a, 0x00, 0x00, 0x00,
  0x64, 0xfd, 0xff, 0xff, 0x08, 0x00, 0x00, 0x00, 0x14, 0x00, 0x00, 0x00,
  0x01, 0x00, 0x00, 0x00, 0x80, 0xff, 0xff, 0xff, 0xff, 0xff, 0xff, 0xff,
  0x00, 0x00, 0x00, 0x00, 0x01, 0x00, 0x00, 0x00, 0x81, 0x80, 0x80, 0x3b,
  0x0c, 0x00, 0x00, 0x00, 0x74, 0x66, 0x6c, 0x2e, 0x71, 0x75, 0x61, 0x6e,
  0x74, 0x69, 0x7a, 0x65, 0x00, 0x00, 0x00, 0x00, 0x02, 0x00, 0x00, 0x00,
  0x01, 0x00, 0x00, 0x00, 0x5a, 0x00, 0x00, 0x00, 0xda, 0xfd, 0xff, 0xff,
  0x00, 0x00, 0x00, 0x01, 0x14, 0x00, 0x00, 0x00, 0x34, 0x00, 0x00, 0x00,
  0x07, 0x00, 0x00, 0x00, 0x00, 0x00, 0x00, 0x09, 0x44, 0x00, 0x00, 0x00,
  0xc4, 0xfd, 0xff, 0xff, 0x08, 0x00, 0x00, 0x00, 0x14, 0x00, 0x00, 0x00,
  0x01, 0x00, 0x00, 0x00, 0x00, 0x00, 0x00, 0x00, 0x00, 0x00, 0x00, 0x00,
  0x00, 0x00, 0x00, 0x00, 0x01, 0x00, 0x00, 0x00, 0xaf, 0xff, 0xa3, 0x3b,
  0x17, 0x00, 0x00, 0x00, 0x73, 0x65, 0x71, 0x75, 0x65, 0x6e, 0x74, 0x69,
  0x61, 0x6c, 0x2f, 0x64, 0x65, 0x6e, 0x73, 0x65, 0x2f, 0x4d, 0x61, 0x74,
  0x4d, 0x75, 0x6c, 0x00, 0x02, 0x00, 0x00, 0x00, 0x20, 0x00, 0x00, 0x00,
  0x5a, 0x00, 0x00, 0x00, 0x42, 0xfe, 0xff, 0xff, 0x00, 0x00, 0x00, 0x01,
  0x14, 0x00, 0x00, 0x00, 0x30, 0x00, 0x00, 0x00, 0x06, 0x00, 0x00, 0x00,
  0x00, 0x00, 0x00, 0x02, 0x50, 0x00, 0x00, 0x00, 0x2c, 0xfe, 0xff, 0xff,
  0x08, 0x00, 0x00, 0x00, 0x10, 0x00, 0x00, 0x00, 0x01, 0x00, 0x00, 0x00,
  0x00, 0x00, 0x00, 0x00, 0x00, 0x00, 0x00, 0x00, 0x01, 0x00, 0x00, 0x00,
  0x54, 0xa4, 0xa4, 0x37, 0x27, 0x00, 0x00, 0x00, 0x73, 0x65, 0x71, 0x75,
  0x65, 0x6e, 0x74, 0x69, 0x61, 0x6c, 0x2f, 0x64, 0x65, 0x6e, 0x73, 0x65,
  0x2f, 0x42, 0x69, 0x61, 0x73, 0x41, 0x64, 0x64, 0x2f, 0x52, 0x65, 0x61,
  0x64, 0x56, 0x61, 0x72, 0x69, 0x61, 0x62, 0x6c, 0x65, 0x4f, 0x70, 0x00,
  0x01, 0x00, 0x00, 0x00, 0x20, 0x00, 0x00, 0x00, 0xb2, 0xfe, 0xff, 0xff,
  0x00, 0x00, 0x00, 0x01, 0x14, 0x00, 0x00, 0x00, 0x30, 0x00, 0x00, 0x00,
  0x05, 0x00, 0x00, 0x00, 0x00, 0x00, 0x00, 0x09, 0x44, 0x00, 0x00, 0x00,
  0x9c, 0xfe, 0xff, 0xff, 0x08, 0x00, 0x00, 0x00, 0x10, 0x00, 0x00, 0x00,
  0x01, 0x00, 0x00, 0x00, 0x00, 0x00, 0x00, 0x00, 0x00, 0x00, 0x00, 0x00,
  0x01, 0x00, 0x00, 0x00, 0xed, 0x56, 0x20, 0x3c, 0x19, 0x00, 0x00, 0x00,
  0x73, 0x65, 0x71, 0x75, 0x65, 0x6e, 0x74, 0x69, 0x61, 0x6c, 0x2f, 0x64,
  0x65, 0x6e, 0x73, 0x65, 0x5f, 0x31, 0x2f, 0x4d, 0x61, 0x74, 0x4d, 0x75,
  0x6c, 0x00, 0x00, 0x00, 0x02, 0x00, 0x00, 0x00, 0x08, 0x00, 0x00, 0x00,
  0x20, 0x00, 0x00, 0x00, 0x1a, 0xff, 0xff, 0xff, 0x00, 0x00, 0x00, 0x01,
  0x14, 0x00, 0x00, 0x00, 0x34, 0x00, 0x00, 0x00, 0x04, 0x00, 0x00, 0x00,
  0x00, 0x00, 0x00, 0x02, 0x58, 0x00, 0x00, 0x00, 0x04, 0xff, 0xff, 0xff,
  0x08, 0x00, 0x00, 0x00, 0x14, 0x00, 0x00, 0x00, 0x01, 0x00, 0x00, 0x00,
  0x00, 0x00, 0x00, 0x00, 0x00, 0x00, 0x00, 0x00, 0x00, 0x00, 0x00, 0x00,
  0x01, 0x00, 0x00, 0x00, 0x74, 0x67, 0x5d, 0x39, 0x29, 0x00, 0x00, 0x00,
  0x73, 0x65, 0x71, 0x75, 0x65, 0x6e, 0x74, 0x69, 0x61, 0x6c, 0x2f, 0x64,
  0x65, 0x6e, 0x73, 0x65, 0x5f, 0x31, 0x2f, 0x42, 0x69, 0x61, 0x73, 0x41,
  0x64, 0x64, 0x2f, 0x52, 0x65, 0x61, 0x64, 0x56, 0x61, 0x72, 0x69, 0x61,
  0x62, 0x6c, 0x65, 0x4f, 0x70, 0x00, 0x00, 0x00, 0x01, 0x00, 0x00, 0x00,
  0x08, 0x00, 0x00, 0x00, 0x92, 0xff, 0xff, 0xff, 0x00, 0x00, 0x00, 0x01,
  0x14, 0x00, 0x00, 0x00, 0x34, 0x00, 0x00, 0x00, 0x03, 0x00, 0x00, 0x00,
  0x00, 0x00, 0x00, 0x09, 0x48, 0x00, 0x00, 0x00, 0x7c, 0xff, 0xff, 0xff,
  0x08, 0x00, 0x00, 0x00, 0x14, 0x00, 0x00, 0x00, 0x01, 0x00, 0x00, 0x00,
  0x00, 0x00, 0x00, 0x00, 0x00, 0x00, 0x00, 0x00, 0x00, 0x00, 0x00, 0x00,
  0x01, 0x00, 0x00, 0x00, 0x9c, 0xbf, 0x3d, 0x3c, 0x19, 0x00, 0x00, 0x00,
  0x73, 0x65, 0x71, 0x75, 0x65, 0x6e, 0x74, 0x69, 0x61, 0x6c, 0x2f, 0x64,
  0x65, 0x6e, 0x73, 0x65, 0x5f, 0x32, 0x2f, 0x4d, 0x61, 0x74, 0x4d, 0x75,
  0x6c, 0x00, 0x00, 0x00, 0x02, 0x00, 0x00, 0x00, 0x04, 0x00, 0x00, 0x00,
  0x08, 0x00, 0x00, 0x00, 0x00, 0x00, 0x16, 0x00, 0x1c, 0x00, 0x18, 0x00,
  0x17, 0x00, 0x10, 0x00, 0x0c, 0x00, 0x08, 0x00, 0x00, 0x00, 0x00, 0x00,
  0x00, 0x00, 0x07, 0x00, 0x16, 0x00, 0x00, 0x00, 0x00, 0x00, 0x00, 0x01,
  0x20, 0x00, 0x00, 0x00, 0x3c, 0x00, 0x00, 0x00, 0x02, 0x00, 0x00, 0x00,
  0x00, 0x00, 0x00, 0x02, 0x60, 0x00, 0x00, 0x00, 0x0c, 0x00, 0x0c, 0x00,
  0x00, 0x00, 0x00, 0x00, 0x08, 0x00, 0x04, 0x00, 0x0c, 0x00, 0x00, 0x00,
  0x08, 0x00, 0x00, 0x00, 0x10, 0x00, 0x00, 0x00, 0x01, 0x00, 0x00, 0x00,
  0x00, 0x00, 0x00, 0x00, 0x00, 0x00, 0x00, 0x00, 0x01, 0x00, 0x00, 0x00,
  0x44, 0xf9, 0x2d, 0x3a, 0x29, 0x00, 0x00, 0x00, 0x73, 0x65, 0x71, 0x75,
  0x65, 0x6e, 0x74, 0x69, 0x61, 0x6c, 0x2f, 0x64, 0x65, 0x6e, 0x73, 0x65,
  0x5f, 0x32, 0x2f, 0x42, 0x69, 0x61, 0x73, 0x41, 0x64, 0x64, 0x2f, 0x52,
  0x65, 0x61, 0x64, 0x56, 0x61, 0x72, 0x69, 0x61, 0x62, 0x6c, 0x65, 0x4f,
  0x70, 0x00, 0x00, 0x00, 0x01, 0x00, 0x00, 0x00, 0x04, 0x00, 0x00, 0x00,
  0x00, 0x00, 0x16, 0x00, 0x1c, 0x00, 0x18, 0x00, 0x00, 0x00, 0x14, 0x00,
  0x10, 0x00, 0x0c, 0x00, 0x00, 0x00, 0x00, 0x00, 0x08, 0x00, 0x07, 0x00,
  0x16, 0x00, 0x00, 0x00, 0x00, 0x00, 0x00, 0x01, 0x14, 0x00, 0x00, 0x00,
  0x20, 0x00, 0x00, 0x00, 0x20, 0x00, 0x00, 0x00, 0x01, 0x00, 0x00, 0x00,
  0x3c, 0x00, 0x00, 0x00, 0x02, 0x00, 0x00, 0x00, 0xff, 0xff, 0xff, 0xff,
  0x5a, 0x00, 0x00, 0x00, 0x04, 0x00, 0x04, 0x00, 0x04, 0x00, 0x00, 0x00,
  0x1d, 0x00, 0x00, 0x00, 0x73, 0x65, 0x72, 0x76, 0x69, 0x6e, 0x67, 0x5f,
  0x64, 0x65, 0x66, 0x61, 0x75, 0x6c, 0x74, 0x5f, 0x64, 0x65, 0x6e, 0x73,
  0x65, 0x5f, 0x69, 0x6e, 0x70, 0x75, 0x74, 0x3a, 0x30, 0x00, 0x00, 0x00,
  0x02, 0x00, 0x00, 0x00, 0x01, 0x00, 0x00, 0x00, 0x5a, 0x00, 0x00, 0x00,
  0x04, 0x00, 0x00, 0x00, 0x58, 0x00, 0x00, 0x00, 0x38, 0x00, 0x00, 0x00,
  0x18, 0x00, 0x00, 0x00, 0x04, 0x00, 0x00, 0x00, 0xe0, 0xff, 0xff, 0xff,
  0x06, 0x00, 0x00, 0x00, 0x02, 0x00, 0x00, 0x00, 0x00, 0x00, 0x00, 0x06,
  0xf0, 0xff, 0xff, 0xff, 0x19, 0x00, 0x00, 0x00, 0x02, 0x00, 0x00, 0x00,
  0x00, 0x00, 0x00, 0x19, 0x0c, 0x00, 0x10, 0x00, 0x0f, 0x00, 0x00, 0x00,
  0x08, 0x00, 0x04, 0x00, 0x0c, 0x00, 0x00, 0x00, 0x09, 0x00, 0x00, 0x00,
  0x04, 0x00, 0x00, 0x00, 0x00, 0x00, 0x00, 0x09, 0x0c, 0x00, 0x0c, 0x00,
  0x0b, 0x00, 0x00, 0x00, 0x00, 0x00, 0x04, 0x00, 0x0c, 0x00, 0x00, 0x00,
  0x72, 0x00, 0x00, 0x00, 0x00, 0x00, 0x00, 0x72
}; 
